<lang:unit> 1
<lang:en> 1
<0> 1
<1> 1
<2> 1
<3> 1
<4> 1
<5> 1
<6> 1
<7> 1
<8> 1
<9> 1
<10> 1
<11> 1
<12> 1
<13> 1
<14> 1
<15> 1
<16> 1
<17> 1
<18> 1
<19> 1
<20> 1
<21> 1
<22> 1
<23> 1
<24> 1
<25> 1
<26> 1
<27> 1
<28> 1
<29> 1
<30> 1
<31> 1
<32> 1
<33> 1
<34> 1
<35> 1
<36> 1
<37> 1
<38> 1
<39> 1
<40> 1
<41> 1
<42> 1
<43> 1
<44> 1
<45> 1
<46> 1
<47> 1
<48> 1
<49> 1
<50> 1
<51> 1
<52> 1
<53> 1
<54> 1
<55> 1
<56> 1
<57> 1
<58> 1
<59> 1
<60> 1
<61> 1
<62> 1
<63> 1
<64> 1
<65> 1
<66> 1
<67> 1
<68> 1
<69> 1
<70> 1
<71> 1
<72> 1
<73> 1
<74> 1
<75> 1
<76> 1
<77> 1
<78> 1
<79> 1
<80> 1
<81> 1
<82> 1
<83> 1
<84> 1
<85> 1
<86> 1
<87> 1
<88> 1
<89> 1
<90> 1
<91> 1
<92> 1
<93> 1
<94> 1
<95> 1
<96> 1
<97> 1
<98> 1
<99> 1
<100> 1
<101> 1
<102> 1
<103> 1
<104> 1
<105> 1
<106> 1
<107> 1
<108> 1
<109> 1
<110> 1
<111> 1
<112> 1
<113> 1
<114> 1
<115> 1
<116> 1
<117> 1
<118> 1
<119> 1
<120> 1
<121> 1
<122> 1
<123> 1
<124> 1
<125> 1
<126> 1
<127> 1
<128> 1
<129> 1
<130> 1
<131> 1
<132> 1
<133> 1
<134> 1
<135> 1
<136> 1
<137> 1
<138> 1
<139> 1
<140> 1
<141> 1
<142> 1
<143> 1
<144> 1
<145> 1
<146> 1
<147> 1
<148> 1
<149> 1
<150> 1
<151> 1
<152> 1
<153> 1
<154> 1
<155> 1
<156> 1
<157> 1
<158> 1
<159> 1
<160> 1
<161> 1
<162> 1
<163> 1
<164> 1
<165> 1
<166> 1
<167> 1
<168> 1
<169> 1
<170> 1
<171> 1
<172> 1
<173> 1
<174> 1
<175> 1
<176> 1
<177> 1
<178> 1
<179> 1
<180> 1
<181> 1
<182> 1
<183> 1
<184> 1
<185> 1
<186> 1
<187> 1
<188> 1
<189> 1
<190> 1
<191> 1
<192> 1
<193> 1
<194> 1
<195> 1
<196> 1
<197> 1
<198> 1
<199> 1
<200> 1
<201> 1
<202> 1
<203> 1
<204> 1
<205> 1
<206> 1
<207> 1
<208> 1
<209> 1
<210> 1
<211> 1
<212> 1
<213> 1
<214> 1
<215> 1
<216> 1
<217> 1
<218> 1
<219> 1
<220> 1
<221> 1
<222> 1
<223> 1
<224> 1
<225> 1
<226> 1
<227> 1
<228> 1
<229> 1
<230> 1
<231> 1
<232> 1
<233> 1
<234> 1
<235> 1
<236> 1
<237> 1
<238> 1
<239> 1
<240> 1
<241> 1
<242> 1
<243> 1
<244> 1
<245> 1
<246> 1
<247> 1
<248> 1
<249> 1
<250> 1
<251> 1
<252> 1
<253> 1
<254> 1
<255> 1
<256> 1
<257> 1
<258> 1
<259> 1
<260> 1
<261> 1
<262> 1
<263> 1
<264> 1
<265> 1
<266> 1
<267> 1
<268> 1
<269> 1
<270> 1
<271> 1
<272> 1
<273> 1
<274> 1
<275> 1
<276> 1
<277> 1
<278> 1
<279> 1
<280> 1
<281> 1
<282> 1
<283> 1
<284> 1
<285> 1
<286> 1
<287> 1
<288> 1
<289> 1
<290> 1
<291> 1
<292> 1
<293> 1
<294> 1
<295> 1
<296> 1
<297> 1
<298> 1
<299> 1
<300> 1
<301> 1
<302> 1
<303> 1
<304> 1
<305> 1
<306> 1
<307> 1
<308> 1
<309> 1
<310> 1
<311> 1
<312> 1
<313> 1
<314> 1
<315> 1
<316> 1
<317> 1
<318> 1
<319> 1
<320> 1
<321> 1
<322> 1
<323> 1
<324> 1
<325> 1
<326> 1
<327> 1
<328> 1
<329> 1
<330> 1
<331> 1
<332> 1
<333> 1
<334> 1
<335> 1
<336> 1
<337> 1
<338> 1
<339> 1
<340> 1
<341> 1
<342> 1
<343> 1
<344> 1
<345> 1
<346> 1
<347> 1
<348> 1
<349> 1
<350> 1
<351> 1
<352> 1
<353> 1
<354> 1
<355> 1
<356> 1
<357> 1
<358> 1
<359> 1
<360> 1
<361> 1
<362> 1
<363> 1
<364> 1
<365> 1
<366> 1
<367> 1
<368> 1
<369> 1
<370> 1
<371> 1
<372> 1
<373> 1
<374> 1
<375> 1
<376> 1
<377> 1
<378> 1
<379> 1
<380> 1
<381> 1
<382> 1
<383> 1
<384> 1
<385> 1
<386> 1
<387> 1
<388> 1
<389> 1
<390> 1
<391> 1
<392> 1
<393> 1
<394> 1
<395> 1
<396> 1
<397> 1
<398> 1
<399> 1
<400> 1
<401> 1
<402> 1
<403> 1
<404> 1
<405> 1
<406> 1
<407> 1
<408> 1
<409> 1
<410> 1
<411> 1
<412> 1
<413> 1
<414> 1
<415> 1
<416> 1
<417> 1
<418> 1
<419> 1
<420> 1
<421> 1
<422> 1
<423> 1
<424> 1
<425> 1
<426> 1
<427> 1
<428> 1
<429> 1
<430> 1
<431> 1
<432> 1
<433> 1
<434> 1
<435> 1
<436> 1
<437> 1
<438> 1
<439> 1
<440> 1
<441> 1
<442> 1
<443> 1
<444> 1
<445> 1
<446> 1
<447> 1
<448> 1
<449> 1
<450> 1
<451> 1
<452> 1
<453> 1
<454> 1
<455> 1
<456> 1
<457> 1
<458> 1
<459> 1
<460> 1
<461> 1
<462> 1
<463> 1
<464> 1
<465> 1
<466> 1
<467> 1
<468> 1
<469> 1
<470> 1
<471> 1
<472> 1
<473> 1
<474> 1
<475> 1
<476> 1
<477> 1
<478> 1
<479> 1
<480> 1
<481> 1
<482> 1
<483> 1
<484> 1
<485> 1
<486> 1
<487> 1
<488> 1
<489> 1
<490> 1
<491> 1
<492> 1
<493> 1
<494> 1
<495> 1
<496> 1
<497> 1
<498> 1
<499> 1
<500> 1
<501> 1
<502> 1
<503> 1
<504> 1
<505> 1
<506> 1
<507> 1
<508> 1
<509> 1
<510> 1
<511> 1
<512> 1
<513> 1
<514> 1
<515> 1
<516> 1
<517> 1
<518> 1
<519> 1
<520> 1
<521> 1
<522> 1
<523> 1
<524> 1
<525> 1
<526> 1
<527> 1
<528> 1
<529> 1
<530> 1
<531> 1
<532> 1
<533> 1
<534> 1
<535> 1
<536> 1
<537> 1
<538> 1
<539> 1
<540> 1
<541> 1
<542> 1
<543> 1
<544> 1
<545> 1
<546> 1
<547> 1
<548> 1
<549> 1
<550> 1
<551> 1
<552> 1
<553> 1
<554> 1
<555> 1
<556> 1
<557> 1
<558> 1
<559> 1
<560> 1
<561> 1
<562> 1
<563> 1
<564> 1
<565> 1
<566> 1
<567> 1
<568> 1
<569> 1
<570> 1
<571> 1
<572> 1
<573> 1
<574> 1
<575> 1
<576> 1
<577> 1
<578> 1
<579> 1
<580> 1
<581> 1
<582> 1
<583> 1
<584> 1
<585> 1
<586> 1
<587> 1
<588> 1
<589> 1
<590> 1
<591> 1
<592> 1
<593> 1
<594> 1
<595> 1
<596> 1
<597> 1
<598> 1
<599> 1
<600> 1
<601> 1
<602> 1
<603> 1
<604> 1
<605> 1
<606> 1
<607> 1
<608> 1
<609> 1
<610> 1
<611> 1
<612> 1
<613> 1
<614> 1
<615> 1
<616> 1
<617> 1
<618> 1
<619> 1
<620> 1
<621> 1
<622> 1
<623> 1
<624> 1
<625> 1
<626> 1
<627> 1
<628> 1
<629> 1
<630> 1
<631> 1
<632> 1
<633> 1
<634> 1
<635> 1
<636> 1
<637> 1
<638> 1
<639> 1
<640> 1
<641> 1
<642> 1
<643> 1
<644> 1
<645> 1
<646> 1
<647> 1
<648> 1
<649> 1
<650> 1
<651> 1
<652> 1
<653> 1
<654> 1
<655> 1
<656> 1
<657> 1
<658> 1
<659> 1
<660> 1
<661> 1
<662> 1
<663> 1
<664> 1
<665> 1
<666> 1
<667> 1
<668> 1
<669> 1
<670> 1
<671> 1
<672> 1
<673> 1
<674> 1
<675> 1
<676> 1
<677> 1
<678> 1
<679> 1
<680> 1
<681> 1
<682> 1
<683> 1
<684> 1
<685> 1
<686> 1
<687> 1
<688> 1
<689> 1
<690> 1
<691> 1
<692> 1
<693> 1
<694> 1
<695> 1
<696> 1
<697> 1
<698> 1
<699> 1
<700> 1
<701> 1
<702> 1
<703> 1
<704> 1
<705> 1
<706> 1
<707> 1
<708> 1
<709> 1
<710> 1
<711> 1
<712> 1
<713> 1
<714> 1
<715> 1
<716> 1
<717> 1
<718> 1
<719> 1
<720> 1
<721> 1
<722> 1
<723> 1
<724> 1
<725> 1
<726> 1
<727> 1
<728> 1
<729> 1
<730> 1
<731> 1
<732> 1
<733> 1
<734> 1
<735> 1
<736> 1
<737> 1
<738> 1
<739> 1
<740> 1
<741> 1
<742> 1
<743> 1
<744> 1
<745> 1
<746> 1
<747> 1
<748> 1
<749> 1
<750> 1
<751> 1
<752> 1
<753> 1
<754> 1
<755> 1
<756> 1
<757> 1
<758> 1
<759> 1
<760> 1
<761> 1
<762> 1
<763> 1
<764> 1
<765> 1
<766> 1
<767> 1
<768> 1
<769> 1
<770> 1
<771> 1
<772> 1
<773> 1
<774> 1
<775> 1
<776> 1
<777> 1
<778> 1
<779> 1
<780> 1
<781> 1
<782> 1
<783> 1
<784> 1
<785> 1
<786> 1
<787> 1
<788> 1
<789> 1
<790> 1
<791> 1
<792> 1
<793> 1
<794> 1
<795> 1
<796> 1
<797> 1
<798> 1
<799> 1
<800> 1
<801> 1
<802> 1
<803> 1
<804> 1
<805> 1
<806> 1
<807> 1
<808> 1
<809> 1
<810> 1
<811> 1
<812> 1
<813> 1
<814> 1
<815> 1
<816> 1
<817> 1
<818> 1
<819> 1
<820> 1
<821> 1
<822> 1
<823> 1
<824> 1
<825> 1
<826> 1
<827> 1
<828> 1
<829> 1
<830> 1
<831> 1
<832> 1
<833> 1
<834> 1
<835> 1
<836> 1
<837> 1
<838> 1
<839> 1
<840> 1
<841> 1
<842> 1
<843> 1
<844> 1
<845> 1
<846> 1
<847> 1
<848> 1
<849> 1
<850> 1
<851> 1
<852> 1
<853> 1
<854> 1
<855> 1
<856> 1
<857> 1
<858> 1
<859> 1
<860> 1
<861> 1
<862> 1
<863> 1
<864> 1
<865> 1
<866> 1
<867> 1
<868> 1
<869> 1
<870> 1
<871> 1
<872> 1
<873> 1
<874> 1
<875> 1
<876> 1
<877> 1
<878> 1
<879> 1
<880> 1
<881> 1
<882> 1
<883> 1
<884> 1
<885> 1
<886> 1
<887> 1
<888> 1
<889> 1
<890> 1
<891> 1
<892> 1
<893> 1
<894> 1
<895> 1
<896> 1
<897> 1
<898> 1
<899> 1
<900> 1
<901> 1
<902> 1
<903> 1
<904> 1
<905> 1
<906> 1
<907> 1
<908> 1
<909> 1
<910> 1
<911> 1
<912> 1
<913> 1
<914> 1
<915> 1
<916> 1
<917> 1
<918> 1
<919> 1
<920> 1
<921> 1
<922> 1
<923> 1
<924> 1
<925> 1
<926> 1
<927> 1
<928> 1
<929> 1
<930> 1
<931> 1
<932> 1
<933> 1
<934> 1
<935> 1
<936> 1
<937> 1
<938> 1
<939> 1
<940> 1
<941> 1
<942> 1
<943> 1
<944> 1
<945> 1
<946> 1
<947> 1
<948> 1
<949> 1
<950> 1
<951> 1
<952> 1
<953> 1
<954> 1
<955> 1
<956> 1
<957> 1
<958> 1
<959> 1
<960> 1
<961> 1
<962> 1
<963> 1
<964> 1
<965> 1
<966> 1
<967> 1
<968> 1
<969> 1
<970> 1
<971> 1
<972> 1
<973> 1
<974> 1
<975> 1
<976> 1
<977> 1
<978> 1
<979> 1
<980> 1
<981> 1
<982> 1
<983> 1
<984> 1
<985> 1
<986> 1
<987> 1
<988> 1
<989> 1
<990> 1
<991> 1
<992> 1
<993> 1
<994> 1
<995> 1
<996> 1
<997> 1
<998> 1
<999> 1
▁t 1
he 1
▁a 1
in 1
▁the 1
re 1
▁s 1
▁w 1
▁o 1
er 1
is 1
nd 1
ed 1
on 1
at 1
▁b 1
▁c 1
it 1
en 1
▁f 1
ou 1
▁h 1
or 1
▁m 1
es 1
an 1
ar 1
▁p 1
▁of 1
as 1
ing 1
▁in 1
al 1
▁to 1
▁d 1
▁and 1
▁l 1
▁th 1
ic 1
om 1
▁n 1
ll 1
le 1
▁he 1
ion 1
▁g 1
The 1
ly 1
▁e 1
▁is 1
▁was 1
ent 1
ad 1
▁be 1
st 1
▁re 1
ow 1
ot 1
ve 1
id 1
im 1
ut 1
ac 1
am 1
et 1
ver 1
ro 1
se 1
▁on 1
ld 1
gh 1
ur 1
ay 1
ir 1
▁y 1
▁for 1
▁st 1
▁u 1
▁it 1
ith 1
ter 1
▁as 1
▁that 1
ri 1
▁we 1
▁with 1
ce 1
ct 1
▁wh 1
ch 1
▁his 1
▁i 1
▁you 1
her 1
il 1
▁an 1
ol 1
ain 1
ation 1
and 1
▁C 1
▁at 1
▁S 1
▁se 1
▁al 1
ght 1
▁are 1
ill 1
red 1
od 1
▁r 1
us 1
ge 1
ul 1
▁con 1
▁not 1
▁by 1
ke 1
pe 1
ave 1
ist 1
▁su 1
▁had 1
▁de 1
He 1
rom 1
▁com 1
▁sh 1
th 1
ers 1
▁M 1
ore 1
▁me 1
ess 1
est 1
nt 1
▁her 1
ab 1
ap 1
▁A 1
um 1
ould 1
It 1
▁ne 1
if 1
all 1
▁v 1
▁k 1
qu 1
ant 1
ard 1
▁ch 1
▁from 1
▁B 1
ate 1
op 1
res 1
os 1
▁were 1
▁ex 1
art 1
▁have 1
▁" 1
ame 1
un 1
▁pro 1
ity 1
em 1
oc 1
▁him 1
ive 1
▁P 1
▁this 1
ig 1
ie 1
▁she 1
ight 1
▁sa 1
our 1
el 1
ies 1
ort 1
▁or 1
iv 1
▁but 1
ome 1
so 1
rou 1
ok 1
▁pl 1
ong 1
▁all 1
Th 1
ast 1
ous 1
▁do 1
ust 1
▁so 1
ag 1
▁man 1
▁go 1
ated 1
ich 1
▁also 1
▁tr 1
ud 1
▁j 1
▁I 1
▁one 1
▁R 1
ally 1
out 1
ak 1
▁le 1
own 1
▁has 1
▁wor 1
ost 1
▁L 1
▁they 1
▁my 1
▁whe 1
pp 1
ack 1
▁int 1
ment 1
▁up 1
▁G 1
▁kn 1
ind 1
ide 1
▁ab 1
▁D 1
▁H 1
ine 1
very 1
av 1
▁no 1
ther 1
ure 1
▁said 1
▁tw 1
ect 1
▁out 1
▁W 1
ip 1
one 1
▁co 1
▁fe 1
ish 1
▁been 1
▁lo 1
▁their 1
▁can 1
▁E 1
▁us 1
▁which 1
▁bo 1
▁there 1
▁F 1
▁cl 1
▁T 1
ry 1
▁un 1
ian 1
pt 1
ound 1
▁ar 1
▁N 1
▁sp 1
itt 1
ff 1
are 1
ace 1
▁ro 1
▁them 1
hed 1
age 1
▁who 1
ass 1
cc 1
▁te 1
au 1
And 1
ree 1
ia 1
ice 1
fter 1
cl 1
ount 1
per 1
ime 1
ater 1
▁would 1
sel 1
ars 1
ber 1
ary 1
ions 1
▁comp 1
wn 1
ite 1
ire 1
▁pr 1
able 1
▁J 1
▁ad 1
ord 1
▁cont 1
▁two 1
▁en 1
▁will 1
ake 1
This 1
▁other 1
te 1
ial 1
ue 1
▁ag 1
▁im 1
pl 1
▁gr 1
ang 1
▁into 1
▁part 1
ub 1
way 1
▁when 1
ance 1
▁li 1
▁qu 1
ark 1
nder 1
ach 1
In 1
act 1
orn 1
▁some 1
ra 1
▁dis 1
uc 1
▁its 1
og 1
ved 1
ose 1
▁what 1
ick 1
ood 1
▁more 1
irst 1
iz 1
▁then 1
ade 1
ans 1
ild 1
ence 1
reat 1
". 1
other 1
▁time 1
▁fl 1
▁per 1
urn 1
▁br 1
ib 1
▁bec 1
ied 1
ings 1
ical 1
▁res 1
▁ye 1
▁am 1
▁off 1
▁sc 1
▁bl 1
ven 1
▁ser 1
▁first 1
ep 1
ign 1
▁over 1
ult 1
▁after 1
ren 1
self 1
▁K 1
▁if 1
▁about 1
▁any 1
oll 1
we 1
▁could 1
ond 1
▁pe 1
ile 1
ress 1
▁comm 1
▁des 1
▁did 1
▁your 1
▁now 1
▁spe 1
ail 1
ious 1
▁only 1
iss 1
ool 1
orm 1
▁work 1
ink 1
▁than 1
ations 1
They 1
vers 1
▁O 1
▁very 1
▁thou 1
land 1
ition 1
▁like 1
ng 1
fore 1
ft 1
ne 1
Wh 1
ict 1
She 1
ens 1
ru 1
hing 1
ather 1
▁pre 1
▁play 1
▁rec 1
▁know 1
ever 1
▁po 1
▁day 1
▁rem 1
ew 1
man 1
int 1
ory 1
fe 1
les 1
ors 1
▁how 1
igh 1
ward 1
▁sm 1
mer 1
▁look 1
ife 1
rough 1
There 1
anc 1
ily 1
▁Ch 1
ull 1
▁again 1
ath 1
▁under 1
ase 1
ittle 1
▁made 1
oth 1
ons 1
▁cons 1
▁ind 1
air 1
▁ri 1
chool 1
ction 1
▁see 1
▁through 1
▁loc 1
▁most 1
▁well 1
ert 1
▁may 1
clud 1
▁bet 1
But 1
▁these 1
▁new 1
▁call 1
ents 1
▁little 1
▁wr 1
▁cr 1
▁imp 1
rent 1
▁St 1
▁mo 1
▁U 1
round 1
ered 1
▁long 1
▁old 1
▁hand 1
ise 1
aw 1
gin 1
ked 1
uch 1
ople 1
▁includ 1
amp 1
hes 1
▁many 1
▁used 1
vel 1
▁ap 1
end 1
▁down 1
ates 1
▁V 1
▁back 1
led 1
ell 1
ister 1
ty 1
pen 1
▁good 1
▁three 1
ks 1
▁boy 1
tern 1
▁never 1
▁app 1
ful 1
ried 1
▁own 1
ix 1
▁before 1
▁every 1
▁found 1
▁should 1
▁str 1
▁such 1
▁ret 1
oy 1
ular 1
gan 1
ited 1
▁sub 1
ouse 1
▁say 1
▁acc 1
▁great 1
▁people 1
form 1
lic 1
▁car 1
▁act 1
aint 1
ough 1
▁bu 1
rib 1
▁came 1
▁mar 1
▁att 1
▁ob 1
▁ac 1
▁pres 1
omet 1
hen 1
▁ear 1
▁name 1
▁just 1
oss 1
▁rep 1
uring 1
▁where 1
▁count 1
His 1
▁dist 1
▁way 1
▁ent 1
▁form 1
▁reg 1
ener 1
mb 1
▁get 1
▁much 1
▁our 1
vent 1
▁sec 1
▁still 1
▁sl 1
▁sur 1
▁must 1
ss 1
ock 1
ec 1
ves 1
als 1
▁thought 1
▁think 1
ollow 1
▁child 1
old 1
▁sy 1
▁upon 1
ared 1
▁lar 1
ness 1
ph 1
▁rel 1
ased 1
ished 1
any 1
▁dif 1
▁set 1
amed 1
ained 1
ause 1
ont 1
▁town 1
ject 1
You 1
▁years 1
▁appe 1
▁went 1
▁known 1
▁want 1
How 1
▁here 1
ible 1
ince 1
▁gl 1
▁cur 1
▁bel 1
▁end 1
▁even 1
▁char 1
▁head 1
▁later 1
ady 1
▁called 1
▁wom 1
ange 1
ived 1
▁don 1
enc 1
ual 1
▁Un 1
ently 1
▁come 1
▁ke 1
ton 1
▁fam 1
▁men 1
▁ph 1
ains 1
ters 1
ities 1
outh 1
▁pass 1
imes 1
▁prod 1
▁supp 1
▁ass 1
▁inst 1
ob 1
▁life 1
▁ele 1
und 1
▁same 1
ually 1
▁four 1
ten 1
orth 1
sh 1
ational 1
▁follow 1
iet 1
ower 1
▁somet 1
erm 1
ative 1
ric 1
▁let 1
▁became 1
▁miss 1
ures 1
ows 1
▁fri 1
▁himself 1
▁ey 1
▁gu 1
inc 1
ale 1
ating 1
▁near 1
▁last 1
rew 1
ier 1
▁school 1
urned 1
▁met 1
▁pub 1
its 1
app 1
ident 1
xt 1
▁inc 1
alk 1
▁mon 1
▁being 1
oh 1
ram 1
ific 1
As 1
▁make 1
ank 1
▁inter 1
ning 1
▁both 1
az 1
▁stud 1
▁ed 1
▁seem 1
▁young 1
▁min 1
▁mus 1
That 1
cept 1
▁too 1
▁high 1
▁dec 1
ble 1
aking 1
▁gener 1
▁em 1
▁num 1
cted 1
gg 1
," 1
ross 1
io 1
▁spec 1
▁cour 1
▁house 1
▁home 1
▁cap 1
▁open 1
ivers 1
▁born 1
ween 1
get 1
▁took 1
arm 1
ics 1
▁word 1
▁fr 1
▁right 1
ield 1
▁ref 1
ired 1
▁pers 1
▁small 1
▁art 1
ret 1
▁those 1
▁away 1
▁fin 1
ah 1
ere 1
▁left 1
ove 1
▁add 1
▁pol 1
What 1
ody 1
▁while 1
▁place 1
▁between 1
▁contin 1
▁sever 1
olog 1
ised 1
▁father 1
ways 1
▁mat 1
ner 1
▁might 1
▁world 1
▁night 1
▁book 1
▁cent 1
up 1
ling 1
son 1
oun 1
ined 1
ives 1
less 1
▁Ar 1
▁several 1
▁without 1
ists 1
ism 1
ley 1
▁sim 1
▁city 1
vern 1
▁another 1
▁occ 1
▁use 1
oot 1
▁year 1
▁ma 1
▁friend 1
▁inv 1
▁find 1
We 1
▁water 1
▁going 1
▁Br 1
▁trans 1
▁exp 1
▁saw 1
att 1
ments 1
irl 1
▁prov 1
▁take 1
▁each 1
▁named 1
ason 1
ided 1
hem 1
▁point 1
▁ev 1
thing 1
li 1
ird 1
▁mod 1
▁often 1
ature 1
▁serv 1
ctor 1
▁disc 1
ized 1
These 1
▁hel 1
▁col 1
▁rest 1
An 1
▁care 1
rigin 1
▁var 1
osed 1
ted 1
▁light 1
ern 1
However 1
ral 1
augh 1
▁run 1
ery 1
roup 1
▁arm 1
ins 1
▁large 1
▁fil 1
▁sign 1
▁coll 1
▁diffe 1
▁dire 1
ee 1
▁began 1
▁located 1
▁sing 1
ys 1
▁dr 1
▁inf 1
▁bus 1
ames 1
▁Y 1
ient 1
▁ins 1
▁second 1
▁once 1
ants 1
For 1
▁tell 1
▁air 1
lish 1
aving 1
akes 1
ck 1
▁New 1
ple 1
▁does 1
ines 1
uth 1
▁show 1
der 1
iness 1
▁during 1
▁sw 1
▁pop 1
▁got 1
▁stand 1
ute 1
▁always 1
▁nothing 1
ork 1
ting 1
uck 1
ured 1
den 1
▁need 1
After 1
row 1
▁tre 1
▁wind 1
▁mister 1
tend 1
▁origin 1
▁eyes 1
▁red 1
▁asked 1
▁area 1
", 1
At 1
▁room 1
▁put 1
When 1
ued 1
▁conf 1
cess 1
ohn 1
▁heart 1
ov 1
▁eff 1
ages 1
▁woman 1
▁sk 1
▁el 1
▁few 1
▁things 1
iew 1
▁gre 1
erv 1
ote 1
▁children 1
▁land 1
▁seen 1
ides 1
eg 1
ash 1
velop 1
urch 1
ts 1
▁war 1
stem 1
▁eng 1
▁because 1
▁Eng 1
ically 1
▁mother 1
▁par 1
by 1
here 1
▁current 1
▁ever 1
ook 1
aring 1
ream 1
ane 1
ately 1
ched 1
▁poss 1
enn 1
▁girl 1
▁music 1
ertain 1
▁group 1
▁against 1
ution 1
▁oper 1
▁love 1
▁ext 1
▁start 1
▁lead 1
▁School 1
All 1
iversity 1
ann 1
▁help 1
▁family 1
▁bre 1
br 1
▁however 1
ither 1
▁film 1
▁song 1
▁const 1
ets 1
▁rece 1
▁shall 1
▁cle 1
pect 1
▁read 1
▁main 1
▁govern 1
▁vis 1
▁soon 1
On 1
▁fore 1
▁six 1
▁looked 1
wards 1
ene 1
▁son 1
ccess 1
▁alb 1
ug 1
ices 1
ural 1
rop 1
▁dep 1
most 1
alf 1
ces 1
day 1
arch 1
▁commun 1
▁king 1
▁build 1
▁che 1
▁around 1
iver 1
▁det 1
▁told 1
▁ans 1
ially 1
▁bro 1
omm 1
▁hum 1
Some 1
▁side 1
▁five 1
▁different 1
port 1
▁comple 1
▁develop 1
▁belie 1
▁person 1
ger 1
aster 1
▁album 1
ott 1
aced 1
▁ple 1
▁The 1
▁system 1
▁something 1
▁public 1
▁state 1
▁fell 1
▁prom 1
ues 1
▁among 1
ience 1
▁list 1
▁face 1
▁ho 1
▁yet 1
rict 1
▁better 1
ility 1
rap 1
iting 1
▁next 1
yp 1
meric 1
▁repl 1
▁along 1
▁hard 1
▁far 1
aken 1
▁mind 1
hip 1
To 1
▁pri 1
▁white 1
▁thing 1
▁number 1
ying 1
▁mark 1
▁full 1
▁hist 1
▁unt 1
▁present 1
▁best 1
▁short 1
▁feel 1
▁common 1
ron 1
▁hor 1
pend 1
▁black 1
▁sil 1
▁heard 1
used 1
▁es 1
▁beh 1
▁within 1
▁design 1
▁mom 1
▁give 1
▁Al 1
jor 1
▁term 1
▁pur 1
▁aff 1
▁mem 1
▁law 1
▁perform 1
▁vill 1
Al 1
▁pat 1
ision 1
▁success 1
err 1
▁though 1
▁av 1
▁produ 1
▁He 1
▁record 1
iving 1
▁seemed 1
ape 1
▁sat 1
ison 1
ense 1
▁include 1
▁played 1
▁charac 1
Its 1
elt 1
▁since 1
▁cond 1
aps 1
aut 1
▁mil 1
▁mean 1
rist 1
ital 1
oice 1
uced 1
ats 1
ax 1
arn 1
▁team 1
▁prog 1
▁bur 1
▁cor 1
▁death 1
▁power 1
unt 1
▁In 1
▁half 1
▁expl 1
ony 1
▁partic 1
▁Count 1
▁won 1
iam 1
▁done 1
▁adv 1
▁med 1
ced 1
oke 1
▁inde 1
▁days 1
ilt 1
▁sent 1
ians 1
▁rele 1
ury 1
▁brother 1
▁station 1
▁adm 1
ract 1
▁gave 1
ior 1
angu 1
▁hour 1
▁knew 1
▁result 1
erest 1
▁door 1
▁real 1
▁kind 1
uss 1
ung 1
▁ste 1
▁conc 1
atch 1
▁sound 1
oney 1
▁import 1
ering 1
▁ide 1
▁val 1
▁est 1
pr 1
aces 1
aid 1
med 1
▁pos 1
▁def 1
ief 1
▁bri 1
▁wife 1
▁tri 1
▁Le 1
▁why 1
▁Americ 1
▁Sh 1
▁band 1
▁fact 1
▁dri 1
If 1
▁less 1
▁University 1
▁interest 1
use 1
▁hold 1
▁foot 1
ably 1
▁sun 1
ances 1
aim 1
▁class 1
yl 1
▁major 1
▁fall 1
▁almost 1
▁soc 1
undred 1
▁moment 1
▁Ind 1
ium 1
▁certain 1
St 1
hern 1
▁sit 1
ged 1
iter 1
▁wa 1
▁underst 1
irc 1
oint 1
▁eight 1
rought 1
▁hands 1
▁sol 1
▁desc 1
ional 1
So 1
ball 1
be 1
reet 1
ege 1
ster 1
▁feat 1
▁line 1
▁sn 1
▁cre 1
iven 1
▁fire 1
▁eas 1
▁County 1
▁country 1
▁opp 1
omp 1
▁until 1
▁daugh 1
▁times 1
▁early 1
ened 1
▁equ 1
ina 1
por 1
▁served 1
side 1
▁heav 1
▁round 1
erman 1
▁requ 1
▁held 1
One 1
illed 1
▁unc 1
▁prof 1
▁become 1
▁quite 1
▁Fr 1
▁game 1
ving 1
ards 1
Ch 1
▁bar 1
iety 1
▁turn 1
▁stop 1
orning 1
ik 1
▁langu 1
▁live 1
▁exper 1
With 1
els 1
ator 1
ached 1
▁turned 1
ones 1
▁company 1
▁top 1
ention 1
▁didn 1
▁Cl 1
ex 1
▁whole 1
▁toget 1
▁together 1
▁business 1
bert 1
idge 1
▁ca 1
▁course 1
▁mer 1
▁hundred 1
een 1
▁god 1
ship 1
▁Sc 1
▁having 1
▁sir 1
Many 1
▁suff 1
▁obs 1
▁offic 1
▁strong 1
Then 1
itions 1
ipp 1
ressed 1
rod 1
enty 1
▁north 1
▁chang 1
▁div 1
ully 1
▁camp 1
▁dou 1
▁fre 1
▁brought 1
▁mag 1
▁attend 1
▁local 1
▁Th 1
selves 1
▁leg 1
ries 1
▁hon 1
▁words 1
ead 1
raw 1
ection 1
▁enough 1
▁road 1
▁morning 1
itten 1
▁received 1
▁government 1
▁tem 1
ider 1
▁keep 1
atic 1
umb 1
▁others 1
▁ve 1
wo 1
▁close 1
▁really 1
ology 1
▁wee 1
oul 1
eng 1
lished 1
▁appear 1
▁alc 1
▁polit 1
▁English 1
▁Is 1
▁organ 1
co 1
eor 1
ille 1
Her 1
not 1
▁popular 1
▁mount 1
▁appro 1
▁dark 1
▁port 1
me 1
▁felt 1
▁effect 1
ize 1
idd 1
▁princ 1
▁move 1
▁village 1
▁character 1
con 1
▁south 1
rence 1
aining 1
▁happ 1
que 1
▁yes 1
▁dest 1
ler 1
▁former 1
▁ground 1
ots 1
ham 1
ped 1
▁win 1
aged 1
▁following 1
uro 1
▁return 1
▁continued 1
▁money 1
▁married 1
▁support 1
▁An 1
▁returned 1
▁voice 1
▁missus 1
gy 1
▁sure 1
sequ 1
▁month 1
▁talk 1
▁circ 1
hy 1
▁bas 1
▁sometimes 1
par 1
▁fur 1
▁dem 1
fic 1
▁wood 1
▁given 1
▁quest 1
▁Mar 1
let 1
▁body 1
▁1 1
▁John 1
No 1
ified 1
▁lay 1
▁died 1
ctions 1
aves 1
▁low 1
▁appeared 1
▁looking 1
▁women 1
▁ann 1
▁anything 1
lu 1
asure 1
▁ill 1
▁gold 1
▁rev 1
arent 1
▁taken 1
oon 1
▁poor 1
▁ra 1
arr 1
ches 1
ograp 1
▁field 1
▁program 1
▁ir 1
▁jo 1
▁included 1
▁fun 1
eth 1
▁sle 1
ox 1
ev 1
ality 1
read 1
▁quick 1
▁sett 1
ases 1
▁speak 1
fully 1
ceed 1
ald 1
▁capt 1
▁beaut 1
▁sum 1
alth 1
iously 1
ination 1
iod 1
▁prop 1
owed 1
▁educ 1
▁across 1
▁series 1
▁pap 1
▁contro 1
ilar 1
▁written 1
▁hap 1
▁general 1
▁' 1
ford 1
▁begin 1
ored 1
▁trad 1
ney 1
▁ten 1
▁prot 1
▁free 1
attle 1
▁important 1
ey 1
▁built 1
▁means 1
▁ship 1
▁swe 1
chn 1
▁news 1
arl 1
▁cross 1
▁daughter 1
▁aw 1
▁behind 1
men 1
▁repres 1
▁nat 1
wered 1
▁event 1
▁meet 1
▁single 1
ese 1
▁happen 1
▁sold 1
▁party 1
idered 1
▁stood 1
aught 1
ected 1
▁bed 1
▁memb 1
▁rather 1
▁sal 1
▁case 1
Two 1
eter 1
ike 1
oor 1
▁wall 1
▁usually 1
lled 1
▁story 1
bs 1
ready 1
▁order 1
oci 1
▁Coll 1
▁answered 1
ef 1
▁vers 1
▁passed 1
of 1
rench 1
▁auth 1
▁church 1
▁alchem 1
▁sud 1
irt 1
During 1
▁pract 1
▁United 1
uff 1
▁tit 1
▁sudden 1
▁third 1
▁lady 1
▁river 1
▁community 1
▁considered 1
ament 1
▁dev 1
▁lost 1
▁walk 1
▁River 1
My 1
▁already 1
▁matter 1
▁herself 1
▁Ro 1
▁anim 1
▁building 1
Do 1
ai 1
ms 1
▁Saint 1
▁grow 1
empt 1
▁incre 1
Other 1
▁moved 1
▁table 1
orts 1
▁rail 1
▁dog 1
▁members 1
▁post 1
▁themselves 1
▁horse 1
▁island 1
ency 1
▁Can 1
▁period 1
▁cannot 1
uted 1
wer 1
▁myself 1
anger 1
▁reason 1
ills 1
▁ran 1
▁twenty 1
▁plan 1
▁exist 1
oud 1
ude 1
▁nor 1
▁German 1
ories 1
▁occur 1
ls 1
▁view 1
▁2 1
urope 1
erc 1
pec 1
▁past 1
▁del 1
itted 1
▁remem 1
▁big 1
▁true 1
▁prim 1
▁whom 1
haps 1
ising 1
▁City 1
▁service 1
▁member 1
▁proper 1
▁itself 1
▁led 1
▁describ 1
▁lab 1
▁Park 1
▁earth 1
itting 1
sc 1
▁particular 1
ought 1
▁entire 1
▁blue 1
▁stru 1
▁tour 1
fort 1
gest 1
▁Sp 1
ousand 1
ounc 1
airs 1
▁everything 1
▁understand 1
▁trave 1
▁above 1
bur 1
body 1
ming 1
ele 1
▁track 1
▁North 1
▁mot 1
▁clear 1
▁county 1
▁currently 1
osp 1
aff 1
▁green 1
▁human 1
▁seat 1
bor 1
▁lim 1
▁conn 1
▁grand 1
ulation 1
ays 1
ument 1
onder 1
gr 1
ush 1
▁crit 1
▁based 1
▁Pr 1
▁exc 1
▁park 1
atter 1
▁dear 1
▁either 1
▁hear 1
ump 1
▁fif 1
inn 1
omin 1
ague 1
▁hur 1
ze 1
▁wide 1
▁ant 1
▁believe 1
▁ord 1
ges 1
urb 1
▁Aust 1
val 1
ficult 1
▁sea 1
▁history 1
▁cal 1
▁difficult 1
▁resp 1
▁process 1
▁represent 1
▁original 1
lf 1
▁cut 1
▁various 1
▁leave 1
▁thousand 1
▁cast 1
▁doub 1
▁fail 1
▁feet 1
ville 1
▁idea 1
▁American 1
ids 1
▁avail 1
▁object 1
▁dream 1
▁followed 1
Most 1
▁else 1
▁Bl 1
▁Ph 1
▁sister 1
▁cry 1
▁gone 1
▁priv 1
▁typ 1
ission 1
▁language 1
▁hot 1
▁War 1
▁wal 1
▁stri 1
▁similar 1
ively 1
▁season 1
yle 1
▁influ 1
Be 1
▁project 1
▁wanted 1
▁species 1
▁sand 1
▁High 1
to 1
▁spr 1
▁inform 1
▁Brit 1
ording 1
wh 1
▁enc 1
▁arri 1
medi 1
▁Cal 1
▁worked 1
▁invol 1
the 1
une 1
▁club 1
though 1
▁wrote 1
ear 1
▁able 1
▁profess 1
ius 1
▁least 1
▁author 1
▁esc 1
▁career 1
▁started 1
▁rese 1
▁fac 1
▁alone 1
▁desert 1
▁Ed 1
▁possible 1
▁alchemist 1
utes 1
▁prev 1
mp 1
▁front 1
▁pie 1
Sh 1
▁dead 1
▁nature 1
raft 1
idence 1
▁learn 1
▁works 1
▁seven 1
▁including 1
▁techn 1
ode 1
ences 1
▁indust 1
che 1
reen 1
▁abs 1
▁gent 1
aur 1
▁South 1
▁command 1
tered 1
Not 1
▁fight 1
▁ep 1
ploy 1
▁Tr 1
▁mor 1
▁street 1
▁Con 1
▁squ 1
▁host 1
▁Comm 1
▁hope 1
▁proble 1
yn 1
▁bad 1
▁longer 1
▁tele 1
▁subject 1
oman 1
▁fav 1
▁replied 1
Both 1
▁soft 1
▁deep 1
▁question 1
▁further 1
▁York 1
oe 1
antly 1
ript 1
▁except 1
▁oh 1
▁office 1
fect 1
▁produced 1
▁gen 1
▁addition 1
▁step 1
▁super 1
▁College 1
kn 1
ization 1
▁hous 1
▁ru 1
▁grad 1
▁lived 1
lin 1
▁district 1
ample 1
▁books 1
▁bit 1
over 1
▁available 1
▁hig 1
▁attack 1
ises 1
▁cried 1
▁consider 1
▁arch 1
▁Christ 1
erred 1
▁friends 1
▁remained 1
▁till 1
▁iss 1
bo 1
▁non 1
▁fort 1
conom 1
▁compet 1
▁trou 1
ara 1
▁ask 1
▁occas 1
▁perhaps 1
▁special 1
iful 1
▁making 1
▁direct 1
▁released 1
estern 1
itary 1
▁fa 1
inct 1
na 1
iddle 1
▁cult 1
▁level 1
▁decl 1
ayed 1
Their 1
▁mis 1
ouncil 1
▁complete 1
▁creat 1
▁Europe 1
itch 1
wood 1
▁kept 1
▁shop 1
ests 1
field 1
▁change 1
aul 1
▁dro 1
▁towards 1
▁fair 1
my 1
ager 1
illiam 1
▁Be 1
▁z 1
▁playing 1
rest 1
band 1
fact 1
▁due 1
▁thus 1
lling 1
▁slow 1
▁wonder 1
▁generally 1
▁rock 1
acy 1
▁separ 1
▁Cent 1
▁attempt 1
▁doctor 1
ogn 1
▁rad 1
▁estab 1
arily 1
▁buried 1
▁cold 1
▁sus 1
▁neigh 1
itor 1
hod 1
▁fish 1
▁States 1
▁situ 1
teen 1
▁bird 1
ement 1
From 1
▁attended 1
▁intern 1
▁gentle 1
inist 1
▁defe 1
▁position 1
ression 1
▁wish 1
▁fig 1
▁makes 1
iding 1
▁east 1
▁ty 1
▁pal 1
▁elect 1
ival 1
▁necess 1
ada 1
▁coming 1
▁features 1
▁grew 1
owers 1
▁example 1
ett 1
▁Wor 1
ivid 1
▁says 1
▁bring 1
af 1
▁activ 1
▁break 1
▁corn 1
ales 1
▁Par 1
▁aut 1
▁indeed 1
▁frequ 1
iol 1
▁emb 1
▁West 1
▁gard 1
ites 1
▁fear 1
▁spir 1
▁master 1
▁west 1
Is 1
▁jud 1
line 1
▁quickly 1
▁food 1
pped 1
hood 1
Ad 1
▁added 1
▁lives 1
▁vol 1
▁cat 1
go 1
lor 1
▁Se 1
apan 1
iled 1
▁sour 1
isted 1
ondon 1
▁outside 1
▁doing 1
ken 1
▁star 1
▁princip 1
▁National 1
▁throughout 1
icip 1
▁prob 1
▁opened 1
Who 1
▁bes 1
itive 1
bour 1
▁mater 1
▁econom 1
▁immedi 1
▁includes 1
isc 1
▁wat 1
ires 1
ma 1
reek 1
▁Gr 1
▁months 1
add 1
▁living 1
ixed 1
▁ball 1
iment 1
▁therefore 1
riage 1
ask 1
▁accept 1
▁constru 1
▁national 1
ublic 1
▁mult 1
▁tou 1
ration 1
▁age 1
▁secret 1
▁Col 1
▁mur 1
head 1
▁court 1
road 1
erson 1
▁compan 1
anch 1
erved 1
▁recogn 1
▁novel 1
▁taking 1
ining 1
▁bright 1
▁using 1
▁surpr 1
▁changed 1
▁hours 1
omes 1
▁Pro 1
▁anc 1
▁cause 1
alt 1
▁purp 1
vered 1
▁depart 1
sy 1
▁Car 1
▁phys 1
▁suddenly 1
▁De 1
▁sleep 1
▁London 1
▁associ 1
▁thr 1
▁watch 1
ston 1
▁decided 1
▁jour 1
▁pay 1
▁self 1
Where 1
▁regard 1
emy 1
pected 1
▁train 1
ata 1
where 1
▁reached 1
▁whose 1
▁comb 1
▁method 1
orthern 1
▁paint 1
ole 1
▁histor 1
▁Ad 1
▁lord 1
work 1
▁Ste 1
aimed 1
▁dam 1
▁week 1
▁soul 1
▁surround 1
reg 1
▁evening 1
▁hus 1
▁largest 1
▁account 1
owd 1
▁acqu 1
▁trees 1
▁employ 1
▁farm 1
▁mill 1
ested 1
▁site 1
bers 1
ades 1
overed 1
▁tree 1
▁blood 1
▁clim 1
Don 1
Now 1
dom 1
▁working 1
▁ver 1
By 1
▁tradition 1
▁surv 1
▁British 1
iff 1
▁wild 1
▁trib 1
▁Or 1
▁developed 1
reme 1
aries 1
ustom 1
▁strange 1
▁beautiful 1
ivil 1
▁region 1
▁Austral 1
▁cou 1
lo 1
▁late 1
▁comes 1
▁op 1
▁songs 1
ili 1
sequently 1
▁terr 1
istic 1
▁Dist 1
▁whether 1
erve 1
▁space 1
▁disp 1
▁It 1
▁chief 1
▁carried 1
▁ut 1
▁natural 1
▁spoke 1
▁draw 1
▁surf 1
▁imm 1
▁tried 1
cul 1
▁deg 1
cts 1
Every 1
bed 1
▁eye 1
▁political 1
ino 1
▁eat 1
▁perfect 1
▁mist 1
▁doubt 1
▁deb 1
apt 1
iforn 1
▁arr 1
well 1
joy 1
▁sugg 1
▁engine 1
▁Geor 1
pendent 1
▁forg 1
outhern 1
lex 1
▁letter 1
▁stars 1
▁style 1
iced 1
▁carry 1
▁arms 1
▁remains 1
▁broad 1
▁sort 1
▁report 1
▁published 1
While 1
▁hair 1
▁impro 1
▁today 1
▁box 1
yd 1
▁formed 1
▁sight 1
▁standing 1
▁Mc 1
ifornia 1
▁covered 1
ana 1
▁below 1
▁forest 1
▁Town 1
▁modern 1
inal 1
▁famous 1
erous 1
▁husband 1
▁relig 1
▁market 1
olic 1
▁har 1
lement 1
cast 1
▁quar 1
▁cost 1
▁ident 1
▁Man 1
osition 1
▁World 1
▁King 1
vision 1
▁pict 1
▁cover 1
▁raised 1
▁den 1
▁Wh 1
orpor 1
▁thir 1
▁title 1
▁signific 1
abit 1
▁material 1
▁glass 1
▁lies 1
▁sitting 1
▁French 1
▁af 1
▁deal 1
▁sens 1
▁mad 1
ingly 1
inet 1
▁rich 1
▁provided 1
ean 1
▁Af 1
ift 1
uses 1
iers 1
ength 1
▁points 1
pecially 1
▁Sw 1
▁bound 1
▁students 1
▁quiet 1
▁District 1
ips 1
Why 1
▁schools 1
▁described 1
▁areas 1
▁repe 1
▁floor 1
▁running 1
▁ready 1
▁role 1
▁entered 1
ators 1
Un 1
aly 1
▁regular 1
rupt 1
▁rout 1
▁bene 1
▁Lake 1
▁prep 1
▁pick 1
ously 1
rs 1
▁lad 1
▁viol 1
▁mouth 1
▁remain 1
llow 1
▁ter 1
oph 1
olution 1
▁determ 1
uge 1
▁phil 1
ply 1
▁Re 1
eder 1
▁answer 1
unicip 1
▁prison 1
Which 1
▁imag 1
▁happy 1
acher 1
▁respect 1
▁pret 1
ference 1
inary 1
▁England 1
▁pain 1
ops 1
▁la 1
rate 1
▁enjoy 1
▁window 1
▁ren 1
▁houses 1
▁Japan 1
enced 1
ocr 1
▁mass 1
▁exam 1
gn 1
▁fast 1
▁rose 1
▁services 1
▁excl 1
iction 1
▁California 1
▁killed 1
ica 1
itude 1
▁football 1
anced 1
▁social 1
▁bord 1
▁Pl 1
▁liter 1
key 1
known 1
▁Har 1
▁fut 1
▁William 1
▁try 1
ps 1
▁type 1
oming 1
▁individ 1
▁manner 1
▁da 1
ails 1
aded 1
cend 1
▁paper 1
asc 1
▁stat 1
resh 1
ha 1
omb 1
▁Island 1
▁movement 1
▁battle 1
▁development 1
▁capital 1
▁created 1
▁crowd 1
▁placed 1
su 1
▁treat 1
ledge 1
▁base 1
Of 1
▁maint 1
irm 1
Each 1
▁drink 1
roy 1
aped 1
▁gun 1
▁fine 1
ensive 1
▁parent 1
like 1
useum 1
▁bank 1
▁information 1
▁captain 1
▁struct 1
hib 1
hel 1
▁introd 1
gu 1
irth 1
▁especially 1
▁mov 1
▁tom 1
Well 1
▁heavy 1
▁parts 1
▁fellow 1
uct 1
▁center 1
▁prince 1
cy 1
cher 1
▁prec 1
▁text 1
▁laugh 1
het 1
▁conv 1
▁hall 1
▁toward 1
ights 1
▁names 1
itar 1
ume 1
iling 1
▁store 1
▁vict 1
▁player 1
▁remember 1
ilities 1
hic 1
▁search 1
▁version 1
▁private 1
▁final 1
unk 1
▁mid 1
▁truth 1
▁possess 1
▁Gu 1
▁forward 1
▁All 1
▁der 1
▁walked 1
▁minutes 1
urs 1
off 1
▁danger 1
aching 1
ological 1
▁instr 1
oes 1
amb 1
▁immediately 1
ned 1
ceeded 1
emet 1
▁As 1
ointed 1
▁suc 1
▁health 1
▁instead 1
▁sense 1
ening 1
?" 1
▁appearance 1
▁chair 1
▁control 1
▁force 1
▁board 1
▁Air 1
▁visit 1
Sever 1
▁intell 1
▁State 1
▁exec 1
▁worth 1
pper 1
▁happened 1
▁events 1
▁length 1
▁clot 1
▁stra 1
▁contains 1
▁rul 1
rel 1
▁vide 1
gar 1
uel 1
▁yellow 1
▁brown 1
▁closed 1
▁nine 1
oses 1
▁plat 1
▁test 1
▁exact 1
▁er 1
▁feeling 1
Or 1
▁ge 1
burg 1
▁lot 1
▁fle 1
▁dress 1
▁di 1
Give 1
aker 1
usion 1
▁takes 1
▁distance 1
pap 1
▁bab 1
orrow 1
▁init 1
emetery 1
ique 1
▁remark 1
ended 1
▁mountain 1
▁eventually 1
▁saying 1
de 1
Can 1
ech 1
▁dut 1
▁merch 1
▁artic 1
▁slight 1
uk 1
▁plant 1
▁occasion 1
▁relations 1
▁press 1
ils 1
▁uncle 1
Several 1
mon 1
▁phot 1
▁die 1
anish 1
▁forms 1
▁attract 1
▁games 1
▁joined 1
▁stay 1
▁stopped 1
▁future 1
▁administ 1
arty 1
▁Bar 1
▁occup 1
oid 1
Later 1
▁stren 1
ground 1
▁production 1
ability 1
▁probably 1
▁education 1
▁din 1
▁president 1
▁nearly 1
ym 1
▁meaning 1
▁fem 1
▁cell 1
▁successful 1
ancy 1
▁slowly 1
▁military 1
udd 1
▁pull 1
▁sheep 1
▁getting 1
▁displ 1
oted 1
▁transl 1
aled 1
▁invest 1
▁official 1
iant 1
vere 1
▁seems 1
▁snow 1
▁pred 1
▁cand 1
▁pot 1
▁mention 1
▁miles 1
▁studied 1
zz 1
▁numerous 1
▁nearby 1
▁inj 1
ky 1
aven 1
▁At 1
lect 1
▁spirit 1
avid 1
▁summer 1
nal 1
agon 1
ny 1
▁contrib 1
west 1
▁writing 1
▁rare 1
▁Indian 1
▁stone 1
▁simple 1
▁neg 1
icy 1
▁desp 1
▁doll 1
rated 1
Another 1
▁recorded 1
stit 1
ushed 1
▁spent 1
ae 1
▁mach 1
▁streng 1
▁Go 1
▁ang 1
▁inn 1
▁sweet 1
▁constit 1
king 1
▁ago 1
▁action 1
rog 1
▁Intern 1
▁allowed 1
▁bott 1
room 1
▁belong 1
▁temper 1
▁contr 1
▁pen 1
▁Afric 1
▁tal 1
▁performed 1
unch 1
▁grave 1
ords 1
iation 1
▁produc 1
rit 1
▁garden 1
atory 1
▁hop 1
▁key 1
▁House 1
▁states 1
iny 1
▁research 1
▁active 1
olf 1
▁agre 1
▁couldn 1
▁comput 1
▁peace 1
▁originally 1
▁designed 1
▁mere 1
▁please 1
Con 1
▁path 1
eds 1
▁civil 1
▁wearing 1
▁Co 1
▁direction 1
ples 1
▁Church 1
▁fly 1
▁municip 1
▁cred 1
anded 1
▁groups 1
▁caused 1
▁breat 1
▁established 1
enth 1
▁attention 1
owing 1
▁warm 1
▁inside 1
olly 1
osing 1
▁rob 1
ospital 1
▁thinking 1
▁pretty 1
▁referred 1
▁scar 1
icated 1
raid 1
ander 1
▁rap 1
▁ess 1
▁race 1
▁newspap 1
▁fund 1
▁weather 1
▁lif 1
▁stage 1
▁middle 1
▁satis 1
▁army 1
▁leaves 1
▁hat 1
▁television 1
cer 1
iles 1
▁shows 1
▁cop 1
▁suppose 1
▁El 1
Ar 1
ware 1
▁send 1
cell 1
sey 1
▁glad 1
aret 1
▁none 1
▁und 1
▁although 1
▁color 1
▁showed 1
▁cab 1
▁purpose 1
▁trust 1
▁aud 1
▁john 1
▁finished 1
▁mostly 1
▁featured 1
asons 1
igned 1
▁lower 1
▁straight 1
▁mess 1
▁kill 1
right 1
▁net 1
▁certainly 1
ential 1
▁pack 1
▁bill 1
▁problem 1
▁college 1
cent 1
▁specific 1
▁experience 1
aug 1
inger 1
▁East 1
▁honor 1
▁lie 1
mith 1
ios 1
▁cy 1
▁poet 1
▁noted 1
olk 1
Only 1
▁Pres 1
▁thy 1
mit 1
aches 1
▁wrong 1
ris 1
ervation 1
ael 1
idents 1
▁extend 1
uments 1
▁access 1
▁review 1
wise 1
itect 1
▁bear 1
▁simply 1
▁ancient 1
▁convers 1
▁shot 1
▁Roman 1
▁piece 1
▁filled 1
▁railway 1
ught 1
oo 1
uce 1
▁And 1
fer 1
▁Phil 1
▁trying 1
▁extreme 1
Ex 1
▁meant 1
▁write 1
▁assist 1
light 1
▁population 1
▁birth 1
▁shar 1
▁according 1
erry 1
▁youth 1
craft 1
Re 1
▁joy 1
▁talking 1
▁replaced 1
▁gradu 1
▁chance 1
Bec 1
▁knowledge 1
hest 1
▁latter 1
ope 1
▁mine 1
Cl 1
asant 1
▁surface 1
Pl 1
▁afraid 1
Tr 1
▁entirely 1
▁offered 1
▁industry 1
amm 1
ipped 1
itation 1
▁award 1
▁hen 1
ux 1
Am 1
▁commerc 1
▁girls 1
▁norm 1
▁distinct 1
▁police 1
ging 1
▁colon 1
▁range 1
Let 1
oned 1
ergy 1
▁tro 1
▁neither 1
▁rain 1
▁Gl 1
▁custom 1
▁centre 1
▁thirty 1
vert 1
ama 1
▁opin 1
ees 1
what 1
ether 1
▁wasn 1
ingu 1
itz 1
▁Val 1
▁Canada 1
omas 1
edd 1
▁claim 1
cle 1
▁fru 1
▁walking 1
▁parents 1
yond 1
olit 1
▁sevent 1
ufact 1
▁beyond 1
▁hast 1
▁tax 1
Three 1
▁personal 1
▁expect 1
▁owned 1
chie 1
▁theory 1
iber 1
eb 1
▁stream 1
ago 1
▁destroy 1
▁marriage 1
ification 1
ables 1
ounds 1
orses 1
▁sch 1
▁places 1
▁Ber 1
▁video 1
▁runs 1
▁feature 1
▁San 1
▁bell 1
▁christ 1
▁appears 1
▁society 1
▁animals 1
▁Mount 1
van 1
▁ce 1
▁save 1
▁required 1
ify 1
▁env 1
▁concern 1
▁gri 1
▁necessary 1
orough 1
Ne 1
▁study 1
▁Am 1
ricult 1
▁leaving 1
Tod 1
▁winter 1
▁whis 1
▁model 1
ishes 1
▁plays 1
▁yourself 1
▁coun 1
▁uses 1
ounded 1
▁ring 1
▁caught 1
bered 1
▁epis 1
xim 1
▁knows 1
▁wait 1
▁believed 1
▁serves 1
apped 1
▁boat 1
▁laid 1
▁lake 1
Oh 1
yal 1
▁possib 1
ems 1
▁circum 1
▁higher 1
time 1
▁release 1
▁countries 1
▁couple 1
▁complex 1
▁involved 1
▁pray 1
▁particularly 1
▁northern 1
▁safe 1
▁trouble 1
ping 1
irgin 1
▁Bo 1
▁bow 1
▁Mich 1
▁easy 1
▁consc 1
asing 1
▁influence 1
▁lines 1
▁altern 1
▁consists 1
rey 1
uke 1
elebr 1
▁moon 1
▁twel 1
▁terms 1
ico 1
oved 1
▁opt 1
▁forgot 1
▁dropped 1
▁bridge 1
▁finally 1
▁Ex 1
▁spread 1
▁buildings 1
Acc 1
ners 1
▁boys 1
esp 1
▁ought 1
▁spot 1
ula 1
▁arg 1
anks 1
▁Cemetery 1
▁tast 1
board 1
▁Ir 1
semb 1
▁Min 1
▁suit 1
utions 1
ours 1
▁fat 1
anged 1
▁strength 1
▁cloud 1
ros 1
eneral 1
▁architect 1
Today 1
▁inh 1
▁pet 1
Because 1
inder 1
▁movie 1
▁practice 1
ashing 1
▁learned 1
▁stre 1
▁foc 1
▁faith 1
▁waiting 1
▁beginning 1
▁drew 1
▁easily 1
▁southern 1
Even 1
ounced 1
▁degree 1
inent 1
▁hill 1
atholic 1
▁minute 1
▁property 1
▁manufact 1
for 1
lt 1
▁grass 1
▁bag 1
▁corner 1
▁Nor 1
oly 1
▁function 1
agn 1
▁doesn 1
chan 1
ols 1
▁applic 1
▁jack 1
▁broken 1
▁marked 1
▁highly 1
▁failed 1
▁Ab 1
▁Road 1
▁dig 1
▁figure 1
▁tea 1
▁related 1
▁Russ 1
▁cases 1
▁silence 1
▁fourth 1
ching 1
str 1
ouis 1
▁thick 1
▁horses 1
▁thee 1
▁understood 1
▁condition 1
▁merchant 1
appe 1
olute 1
▁critic 1
▁results 1
ule 1
▁arrived 1
ena 1
▁dim 1
▁source 1
▁apart 1
▁coast 1
Like 1
▁discuss 1
▁frequently 1
▁central 1
▁systems 1
▁Char 1
▁loss 1
▁mainly 1
▁stories 1
▁magaz 1
eer 1
atin 1
umed 1
▁Soc 1
▁Arab 1
▁hunt 1
acing 1
▁forget 1
▁gas 1
umn 1
ette 1
▁adj 1
oured 1
▁pit 1
▁serve 1
edy 1
Also 1
▁Rep 1
raz 1
▁elected 1
unity 1
▁flowers 1
abor 1
▁sac 1
iring 1
▁celebr 1
▁subsequently 1
ompany 1
▁plain 1
▁spring 1
uous 1
▁Mon 1
▁significant 1
▁primary 1
▁Australia 1
▁Ass 1
▁dry 1
▁respons 1
lig 1
rec 1
lected 1
▁larger 1
agement 1
Did 1
house 1
▁fool 1
▁twice 1
▁job 1
▁clean 1
▁ended 1
▁comfort 1
▁doc 1
▁loved 1
▁Sec 1
▁depend 1
▁completely 1
liament 1
▁size 1
quar 1
▁century 1
▁Pol 1
▁iron 1
▁holding 1
▁guitar 1
antic 1
▁speaking 1
▁platform 1
▁amb 1
▁Rich 1
heast 1
▁huge 1
ography 1
ipe 1
bury 1
▁obt 1
▁Mary 1
▁aftern 1
▁international 1
▁Hall 1
▁helped 1
▁changes 1
▁compl 1
▁variety 1
▁favor 1
▁shad 1
uction 1
mark 1
▁sky 1
atively 1
▁pan 1
▁eld 1
▁concept 1
▁rapid 1
Add 1
▁bi 1
▁particip 1
amer 1
rible 1
▁dinner 1
▁restaur 1
▁primarily 1
rook 1
▁reb 1
▁spok 1
▁shut 1
▁earl 1
▁educated 1
▁ice 1
▁Port 1
▁council 1
▁goes 1
▁weeks 1
ores 1
▁collect 1
▁reve 1
▁guard 1
▁greater 1
isk 1
▁commercial 1
▁allow 1
Since 1
▁birds 1
▁older 1
rian 1
olved 1
▁appl 1
▁leading 1
▁distrib 1
'. 1
▁Street 1
▁flat 1
▁contract 1
ams 1
▁content 1
Br 1
alian 1
Thus 1
▁Roy 1
▁individual 1
▁taught 1
▁offer 1
▁Ac 1
▁tall 1
▁edge 1
▁James 1
▁shown 1
▁succeeded 1
▁languages 1
ora 1
▁amount 1
▁silver 1
▁widely 1
▁Cr 1
▁delight 1
▁princess 1
▁firm 1
▁presence 1
icient 1
▁enter 1
▁location 1
▁imposs 1
▁somewhat 1
abb 1
▁Sch 1
▁walls 1
▁fresh 1
win 1
icks 1
▁needed 1
▁America 1
▁twelve 1
▁performance 1
▁fal 1
▁achie 1
▁commonly 1
▁mel 1
▁sad 1
▁van 1
arrow 1
berg 1
▁multip 1
▁fifty 1
▁invent 1
fl 1
May 1
hered 1
▁prevent 1
iron 1
▁sem 1
▁emer 1
▁interp 1
iqu 1
▁struck 1
▁om 1
ceived 1
▁treasure 1
Pe 1
eal 1
Somet 1
oking 1
▁trade 1
view 1
▁sons 1
Before 1
▁speed 1
▁continue 1
▁hardly 1
▁separate 1
▁instit 1
aign 1
come 1
illa 1
▁hom 1
▁egg 1
Was 1
▁ves 1
▁harm 1
▁leader 1
ican 1
▁anx 1
▁repeated 1
▁Germany 1
▁previous 1
▁gentleman 1
ograph 1
▁forced 1
arth 1
Although 1
▁unknown 1
▁neighbor 1
▁hung 1
▁May 1
▁threat 1
back 1
▁Party 1
▁gives 1
▁reach 1
▁reading 1
▁adop 1
ington 1
▁Council 1
▁agricult 1
▁Med 1
shire 1
idden 1
▁dism 1
▁mechan 1
▁Me 1
▁clos 1
▁wine 1
▁divided 1
met 1
▁afternoon 1
aph 1
rawn 1
▁Mor 1
▁queen 1
▁Pe 1
▁cryst 1
▁science 1
▁Met 1
▁pock 1
▁construction 1
▁lack 1
▁flight 1
According 1
▁evidence 1
▁training 1
▁Mus 1
▁gall 1
▁rule 1
▁directly 1
▁discovered 1
▁pleasure 1
▁hit 1
▁tot 1
▁neare 1
▁scene 1
▁strugg 1
orporated 1
▁Christian 1
▁giving 1
aine 1
▁alt 1
▁route 1
▁George 1
▁- 1
lands 1
▁data 1
▁subst 1
▁parish 1
▁tone 1
▁hol 1
▁philos 1
verse 1
▁France 1
ulf 1
▁speech 1
▁characters 1
▁isn 1
▁descend 1
▁charge 1
▁Ne 1
Will 1
▁smile 1
▁directed 1
▁radio 1
▁independent 1
▁hospital 1
▁sex 1
▁cit 1
▁exhib 1
▁ninet 1
Sc 1
ension 1
▁provide 1
▁settled 1
▁majority 1
▁anal 1
▁everyone 1
▁associated 1
ari 1
nds 1
more 1
▁Bay 1
▁thin 1
▁provides 1
ket 1
▁beat 1
pic 1
▁artist 1
▁fright 1
▁wouldn 1
▁teacher 1
▁broke 1
▁smaller 1
▁standard 1
▁operated 1
▁ways 1
aughed 1
▁films 1
ida 1
▁champ 1
▁english 1
▁opinion 1
▁expected 1
▁Jack 1
▁cho 1
▁forth 1
▁teams 1
▁listed 1
▁impossible 1
▁hole 1
isions 1
Just 1
▁laughed 1
lers 1
ourt 1
▁forces 1
ugust 1
▁sell 1
atever 1
▁brief 1
▁shoot 1
▁musical 1
▁Rec 1
▁bal 1
▁tur 1
▁western 1
▁represented 1
cks 1
ocks 1
rect 1
▁cup 1
fast 1
alled 1
▁escape 1
▁eighteen 1
▁neck 1
▁shape 1
ashion 1
▁storm 1
▁univers 1
isl 1
utive 1
▁link 1
▁circumst 1
▁sen 1
▁card 1
▁Jew 1
▁sor 1
▁valley 1
▁problems 1
▁wise 1
▁shirt 1
▁seeing 1
▁actually 1
atives 1
▁dressed 1
▁meeting 1
▁Em 1
▁aband 1
ancing 1
▁metal 1
▁likely 1
▁native 1
▁perm 1
Yes 1
▁silent 1
▁greatest 1
▁appointed 1
▁structure 1
▁professional 1
sec 1
▁insp 1
▁scient 1
▁Hill 1
▁date 1
icket 1
▁shout 1
garet 1
▁energy 1
Bl 1
▁inqu 1
▁note 1
▁magn 1
▁reported 1
▁beauty 1
▁highest 1
oms 1
▁looks 1
astic 1
▁European 1
▁ign 1
ocked 1
och 1
▁vessel 1
▁university 1
Mar 1
▁hero 1
▁libr 1
▁liber 1
▁continues 1
▁En 1
hens 1
▁You 1
▁voc 1
▁opening 1
▁value 1
▁League 1
▁suffered 1
▁observed 1
▁traditional 1
ek 1
▁wit 1
orter 1
ulated 1
▁recent 1
▁picture 1
▁situated 1
▁burn 1
avy 1
▁towns 1
▁afterwards 1
atre 1
rences 1
▁amer 1
▁cere 1
▁print 1
New 1
osite 1
worth 1
▁hang 1
tr 1
kin 1
▁types 1
▁react 1
istor 1
arsh 1
▁experi 1
▁express 1
▁Catholic 1
▁composed 1
imate 1
ibr 1
ademy 1
▁stones 1
adian 1
▁watched 1
▁castle 1
▁brothers 1
rea 1
▁Ange 1
▁Club 1
rial 1
▁baby 1
▁expression 1
▁limited 1
▁David 1
▁Su 1
ruction 1
▁transport 1
yr 1
▁pun 1
ication 1
▁Mart 1
▁director 1
ka 1
aval 1
▁weak 1
▁investig 1
ishop 1
▁aunt 1
▁clothes 1
sych 1
▁Bel 1
▁Paul 1
▁International 1
De 1
▁Te 1
▁gar 1
▁disappe 1
▁Township 1
▁mentioned 1
anted 1
isher 1
▁catch 1
▁habit 1
uly 1
ker 1
▁spoken 1
▁typically 1
ateg 1
lease 1
fied 1
gypt 1
▁serious 1
▁President 1
▁activities 1
ember 1
eff 1
▁brand 1
▁Ant 1
▁virt 1
▁beside 1
▁proved 1
▁mut 1
▁saint 1
ero 1
▁campaign 1
▁Reg 1
ictor 1
▁aircraft 1
can 1
▁relationship 1
▁foreign 1
ray 1
▁chem 1
▁opport 1
▁sword 1
▁dance 1
▁cities 1
▁heaven 1
▁connect 1
▁windows 1
See 1
John 1
▁singing 1
▁apparent 1
Are 1
▁cool 1
▁nice 1
▁cous 1
Se 1
▁dom 1
▁Green 1
▁defin 1
▁growing 1
▁increased 1
▁conversation 1
▁newspaper 1
▁becomes 1
lem 1
▁Miss 1
▁remembered 1
▁distingu 1
▁eastern 1
▁paid 1
bridge 1
▁faint 1
aked 1
▁tears 1
▁studies 1
▁introduced 1
▁tar 1
▁swim 1
ronic 1
▁animal 1
gs 1
ici 1
▁jump 1
▁situation 1
ittee 1
▁coach 1
▁border 1
▁fashion 1
urity 1
attered 1
▁tracks 1
stand 1
Here 1
mond 1
father 1
▁letters 1
▁ven 1
▁stands 1
▁Do 1
▁surprise 1
unn 1
▁fields 1
▁disapp 1
▁spect 1
▁tim 1
▁excell 1
▁cru 1
▁sports 1
▁thoughts 1
▁palace 1
quarters 1
▁Pal 1
▁soldiers 1
▁exclaimed 1
▁listen 1
▁autom 1
▁prepared 1
vey 1
▁heat 1
▁tail 1
▁wear 1
olitan 1
▁enemy 1
▁throw 1
▁Robert 1
▁younger 1
ician 1
▁Pat 1
▁fixed 1
▁produce 1
Have 1
▁managed 1
inese 1
ria 1
▁magazine 1
▁wealth 1
▁od 1
▁conditions 1
▁vent 1
mar 1
▁minister 1
▁existence 1
▁cart 1
▁advant 1
rim 1
▁planet 1
▁ships 1
▁connected 1
ndon 1
▁religious 1
▁vehic 1
▁determined 1
resp 1
▁memory 1
alls 1
▁minor 1
▁sick 1
▁sharp 1
▁intellig 1
▁bull 1
▁legs 1
▁section 1
▁Dep 1
Desp 1
▁scarce 1
▁stret 1
omy 1
aling 1
▁double 1
omen 1
▁empt 1
▁usual 1
odes 1
▁err 1
ses 1
▁smoke 1
▁Fl 1
aging 1
▁lear 1
▁products 1
cean 1
▁Mont 1
▁marry 1
estival 1
▁neighbour 1
▁deli 1
▁grace 1
▁schol 1
▁kit 1
▁Govern 1
Such 1
night 1
icted 1
▁accepted 1
▁female 1
▁butter 1
▁She 1
bon 1
▁oil 1
amber 1
nding 1
▁luck 1
▁journey 1
▁desire 1
▁contem 1
▁numbers 1
▁Republic 1
▁Englishman 1
▁founded 1
▁require 1
▁Sen 1
illy 1
▁narrow 1
ani 1
▁Bur 1
ailed 1
▁beg 1
▁dise 1
▁qual 1
▁sides 1
▁fallen 1
rem 1
▁evil 1
▁approach 1
list 1
▁kiss 1
▁companies 1
▁blind 1
Despite 1
▁england 1
reland 1
▁dread 1
▁ly 1
gged 1
▁previously 1
Ab 1
▁upper 1
▁mixed 1
▁Valley 1
▁contain 1
▁Ma 1
▁Spanish 1
▁loud 1
▁cyl 1
▁flag 1
▁supported 1
ompl 1
▁rate 1
▁issue 1
▁instrument 1
▁One 1
▁exactly 1
wr 1
hire 1
▁drum 1
▁breath 1
▁plants 1
▁Japanese 1
otion 1
▁gate 1
▁guess 1
ring 1
▁extra 1
ima 1
▁royal 1
▁quarter 1
▁God 1
while 1
▁shore 1
ancis 1
stone 1
ogether 1
▁Africa 1
▁measure 1
izes 1
izing 1
▁dollars 1
▁buy 1
rid 1
▁Union 1
▁players 1
gl 1
▁vo 1
▁tor 1
▁occurred 1
▁pure 1
▁heads 1
▁Royal 1
▁honour 1
▁offers 1
▁pieces 1
hold 1
▁diam 1
ror 1
rance 1
▁vari 1
ault 1
Never 1
irginia 1
▁noticed 1
▁Ham 1
▁earlier 1
▁Dem 1
▁Hen 1
anned 1
▁pros 1
▁oblig 1
▁slightly 1
hew 1
under 1
▁crew 1
▁product 1
mas 1
stead 1
▁notable 1
Ind 1
ented 1
▁rough 1
▁whatever 1
▁presented 1
astern 1
▁judge 1
▁basket 1
▁ast 1
▁progress 1
ki 1
eness 1
▁powerful 1
inated 1
▁moving 1
▁surrounding 1
▁Tex 1
clock 1
▁bread 1
▁indic 1
iance 1
▁Scott 1
▁delic 1
▁collection 1
▁rub 1
ashed 1
▁declared 1
▁match 1
iar 1
▁environ 1
▁mary 1
▁journal 1
ota 1
asis 1
▁computer 1
Hey 1
porary 1
ares 1
ental 1
▁maid 1
▁consist 1
▁mix 1
kes 1
▁student 1
▁dust 1
fortun 1
▁notice 1
ini 1
▁fit 1
▁webs 1
▁network 1
Le 1
ario 1
▁motion 1
▁opposite 1
▁beach 1
oseph 1
More 1
▁coat 1
▁subs 1
▁India 1
▁fully 1
▁trail 1
ims 1
ona 1
▁holds 1
▁concert 1
▁refused 1
▁turning 1
orial 1
▁furn 1
ibility 1
▁stick 1
▁worse 1
▁extremely 1
orks 1
▁Mac 1
▁unless 1
▁owner 1
eper 1
book 1
roud 1
▁eth 1
▁driver 1
▁favour 1
▁ordered 1
oper 1
uries 1
▁symb 1
▁Louis 1
▁portion 1
▁mountains 1
iana 1
itory 1
▁rank 1
zen 1
ache 1
▁ble 1
▁ideas 1
▁purch 1
▁weight 1
aunt 1
etic 1
ropolitan 1
▁accident 1
ety 1
apter 1
▁anyone 1
▁pointed 1
▁hyp 1
▁removed 1
la 1
▁Black 1
▁weap 1
▁authority 1
▁ash 1
▁threw 1
▁airport 1
▁largely 1
▁Creek 1
▁Peter 1
▁citiz 1
jo 1
owned 1
▁hy 1
▁Jer 1
▁Airport 1
▁headquarters 1
Pro 1
▁gaz 1
▁sav 1
▁fruit 1
▁steps 1
▁Mal 1
▁officer 1
▁proposed 1
▁grown 1
▁falling 1
▁mir 1
eding 1
Follow 1
▁lying 1
▁surprised 1
osen 1
ishing 1
▁Her 1
▁diss 1
▁duty 1
▁via 1
▁mort 1
▁share 1
▁philosop 1
▁physical 1
unior 1
▁noise 1
place 1
▁issues 1
▁golden 1
▁receive 1
bing 1
▁Sal 1
▁rid 1
▁rot 1
▁skin 1
▁tower 1
▁museum 1
▁becoming 1
▁fighting 1
▁pale 1
▁greatly 1
▁drawn 1
▁rom 1
▁elements 1
▁staff 1
▁contained 1
ompan 1
▁square 1
▁ham 1
▁domin 1
▁carrying 1
cles 1
▁spl 1
▁bought 1
▁creature 1
aved 1
thur 1
▁ded 1
▁municipality 1
Gr 1
ception 1
▁retired 1
▁Rail 1
▁poly 1
ashington 1
▁election 1
▁officers 1
▁log 1
▁mic 1
▁pra 1
pered 1
▁recomm 1
rol 1
▁lips 1
▁writer 1
peror 1
▁stated 1
▁pil 1
▁dram 1
▁roof 1
▁french 1
▁address 1
▁programs 1
▁Per 1
▁earn 1
▁Paris 1
▁labor 1
▁arrest 1
▁interview 1
▁ones 1
com 1
▁effects 1
▁bless 1
▁stock 1
▁division 1
▁interpret 1
▁Mil 1
▁flo 1
▁merely 1
▁persons 1
▁bod 1
▁plans 1
▁travel 1
▁element 1
ias 1
icago 1
▁grey 1
ption 1
▁Great 1
ionship 1
ription 1
▁accompl 1
▁terrible 1
▁psych 1
▁episode 1
▁politics 1
onst 1
▁gro 1
▁culture 1
Please 1
▁editor 1
▁passing 1
▁restaurant 1
Per 1
bled 1
iel 1
▁Associ 1
▁Museum 1
▁resist 1
▁unf 1
▁agreed 1
▁sail 1
▁nation 1
▁severe 1
▁ben 1
▁Academy 1
▁positive 1
▁Mass 1
▁thank 1
respond 1
▁wished 1
▁Company 1
▁streets 1
▁visible 1
▁image 1
▁intended 1
using 1
▁cousin 1
▁effort 1
▁General 1
▁Cor 1
hester 1
▁completed 1
▁difference 1
bl 1
▁convent 1
▁leaders 1
▁interested 1
aud 1
ilies 1
lls 1
uls 1
▁anne 1
Had 1
ait 1
▁id 1
▁coff 1
▁unus 1
oma 1
wick 1
▁signed 1
chen 1
▁Sam 1
▁economy 1
▁sym 1
▁candid 1
▁machine 1
ola 1
▁withd 1
theless 1
▁follows 1
▁explained 1
change 1
▁circumstances 1
yer 1
▁dogs 1
▁advent 1
▁faces 1
lla 1
▁bottom 1
▁Alex 1
▁bare 1
▁Italian 1
▁controvers 1
Said 1
lymp 1
▁Penn 1
▁transform 1
▁rise 1
▁electric 1
▁daughters 1
▁nick 1
▁drive 1
▁sched 1
▁library 1
▁operations 1
kins 1
▁perfectly 1
.. 1
▁pa 1
iano 1
Among 1
set 1
venue 1
▁survived 1
Up 1
▁renamed 1
▁recently 1
▁Victor 1
▁passion 1
▁destroyed 1
▁forty 1
▁encour 1
▁illust 1
▁instant 1
▁rocks 1
Following 1
ients 1
▁tired 1
▁papers 1
▁signal 1
▁concent 1
▁fishing 1
▁province 1
ste 1
▁For 1
▁laws 1
anta 1
▁male 1
▁freed 1
▁needs 1
rees 1
▁Central 1
▁decision 1
Sim 1
Look 1
▁avoid 1
▁correspond 1
Ph 1
▁Frank 1
▁rights 1
▁sought 1
▁sources 1
▁happiness 1
▁principal 1
▁Red 1
▁choice 1
▁economic 1
mosp 1
aming 1
▁agree 1
▁observ 1
▁reviews 1
▁drop 1
▁Charles 1
▁tend 1
▁Texas 1
▁crystal 1
apes 1
▁pair 1
▁Greek 1
▁questions 1
▁stro 1
▁counter 1
iliar 1
uts 1
herd 1
tt 1
ederal 1
▁pleasant 1
▁Mark 1
▁join 1
▁regarded 1
Over 1
rie 1
abeth 1
adium 1
terday 1
▁activity 1
eral 1
▁blow 1
▁meas 1
enger 1
▁manager 1
▁screen 1
▁supposed 1
Sp 1
wing 1
▁height 1
pet 1
▁pocket 1
azz 1
adem 1
ties 1
▁shadow 1
▁operates 1
▁ox 1
▁literature 1
nament 1
ads 1
enes 1
▁conce 1
▁organization 1
▁cow 1
▁software 1
bles 1
▁wid 1
▁begins 1
▁establish 1
▁wel 1
▁spite 1
▁Mex 1
▁Wood 1
▁condu 1
Those 1
▁compos 1
▁waters 1
▁ur 1
ading 1
▁atmosp 1
▁demand 1
host 1
▁london 1
▁We 1
▁Rock 1
▁orders 1
utch 1
rous 1
▁exerc 1
▁historical 1
▁stations 1
lict 1
▁employed 1
▁breakfast 1
Mc 1
▁mission 1
ooth 1
otland 1
▁Canadian 1
▁recognized 1
People 1
▁fro 1
achus 1
▁Area 1
▁Latin 1
▁eager 1
▁beneath 1
ano 1
iments 1
▁quality 1
ado 1
▁pattern 1
▁Western 1
▁cylinder 1
▁conscious 1
▁Thomas 1
▁absolute 1
▁environment 1
uals 1
▁Old 1
▁crim 1
▁ends 1
▁vary 1
Though 1
▁suggested 1
▁Society 1
▁advert 1
▁hyd 1
▁competition 1
▁Jewish 1
onic 1
▁policy 1
▁Richard 1
▁arrange 1
▁methods 1
arian 1
▁useful 1
▁darkness 1
odd 1
▁Fore 1
▁impl 1
▁occurs 1
▁pulled 1
▁closely 1
▁explain 1
▁improve 1
▁township 1
fit 1
igan 1
▁batt 1
ntario 1
▁haven 1
▁interrupt 1
ysis 1
▁empty 1
▁lit 1
▁shook 1
▁circle 1
year 1
▁ult 1
stitute 1
ushing 1
▁quant 1
▁document 1
▁jew 1
▁reasons 1
▁operation 1
▁Washington 1
▁commission 1
▁Oh 1
▁legisl 1
▁lights 1
iform 1
▁check 1
▁learning 1
za 1
mber 1
annel 1
pherd 1
urance 1
ye 1
overy 1
▁reply 1
▁surrounded 1
▁label 1
▁teach 1
▁besides 1
▁wonderful 1
nes 1
▁ah 1
eorge 1
Cur 1
usted 1
▁chall 1
▁nobody 1
▁Ap 1
▁vac 1
▁multiple 1
rics 1
▁Tor 1
based 1
▁daily 1
▁mayor 1
▁increase 1
osh 1
uit 1
ruct 1
▁lean 1
▁purs 1
▁parties 1
▁principle 1
▁lose 1
▁growth 1
▁heavily 1
▁Carol 1
▁suggest 1
▁stranger 1
▁Mo 1
etts 1
▁Center 1
▁versions 1
▁legal 1
▁gained 1
▁Court 1
▁financ 1
▁First 1
▁Ontario 1
▁proceed 1
▁background 1
icked 1
▁someone 1
▁prominent 1
▁additional 1
▁importance 1
pro 1
rig 1
▁Chinese 1
▁excited 1
war 1
▁decor 1
▁extended 1
▁Wil 1
▁calm 1
ferred 1
urally 1
▁communities 1
▁wants 1
uary 1
uten 1
lection 1
iday 1
▁eggs 1
▁alive 1
alle 1
▁anti 1
izabeth 1
▁Minister 1
▁Law 1
▁articles 1
▁oldest 1
▁suspic 1
▁percent 1
ingers 1
▁models 1
... 1
Man 1
▁ath 1
ocratic 1
▁protect 1
▁shoulder 1
esh 1
ller 1
▁conver 1
▁forgotten 1
born 1
▁lic 1
▁saf 1
▁drawing 1
ternal 1
gent 1
gel 1
onent 1
burgh 1
▁crater 1
▁picked 1
▁familiar 1
▁instruments 1
▁tong 1
Ste 1
▁sequ 1
▁adopted 1
▁inhabit 1
▁religion 1
uzz 1
Yet 1
▁integ 1
▁troops 1
leep 1
▁cas 1
▁playlist 1
▁considerable 1
arts 1
▁diver 1
▁touch 1
ishment 1
▁tender 1
▁motor 1
▁trains 1
▁angry 1
▁unique 1
▁setting 1
▁responsible 1
▁knight 1
▁ladies 1
gia 1
▁riding 1
▁article 1
▁conduct 1
▁million 1
ylvan 1
sequent 1
enny 1
oston 1
▁acquaint 1
▁facilities 1
▁actor 1
▁awarded 1
▁engaged 1
▁figures 1
aks 1
▁fill 1
▁Olymp 1
ati 1
▁suburb 1
▁abandoned 1
▁goal 1
encies 1
▁brain 1
▁carefully 1
▁steel 1
▁colour 1
▁presently 1
▁proud 1
▁Swed 1
▁writ 1
▁medical 1
ril 1
ugg 1
▁gray 1
▁nickn 1
▁pecul 1
▁veget 1
water 1
▁finding 1
▁advanced 1
▁Cam 1
▁cook 1
▁media 1
▁sorry 1
▁classes 1
▁display 1
▁treatment 1
▁Association 1
anes 1
asts 1
▁dial 1
▁peculiar 1
▁administr 1
▁milk 1
▁China 1
ita 1
▁resemb 1
▁occasionally 1
▁fought 1
▁Don 1
▁behav 1
▁website 1
▁remaining 1
▁Ireland 1
▁Michael 1
▁assemb 1
▁causes 1
Play 1
inity 1
▁hotel 1
▁details 1
▁difficulty 1
▁imper 1
cope 1
▁emph 1
▁touched 1
▁scr 1
after 1
▁artists 1
▁derived 1
isation 1
oring 1
orted 1
▁estate 1
▁margaret 1
▁Sy 1
achusetts 1
▁excellent 1
▁fifth 1
▁Columb 1
▁correct 1
▁fifteen 1
▁resident 1
otes 1
▁ing 1
▁salt 1
▁guest 1
▁campus 1
▁disease 1
▁families 1
▁settlement 1
▁ears 1
▁block 1
▁score 1
▁carriage 1
gress 1
▁elder 1
▁acting 1
▁otherwise 1
Te 1
▁Res 1
▁accompan 1
▁normal 1
▁fortune 1
▁Tur 1
▁Flor 1
▁flows 1
▁tremb 1
▁alternative 1
▁Chicago 1
▁Mel 1
▁kingdom 1
▁watching 1
▁une 1
Through 1
▁powers 1
▁smiled 1
esse 1
▁glo 1
▁aston 1
ylvania 1
▁singer 1
acks 1
▁ax 1
▁notes 1
▁pictures 1
▁somewhere 1
utation 1
▁promise 1
▁Australian 1
▁victory 1
▁ban 1
▁quietly 1
▁advantage 1
▁confess 1
▁railroad 1
▁Cast 1
▁earned 1
▁equal 1
▁Russian 1
▁positions 1
▁aver 1
iration 1
hedral 1
▁unit 1
ala 1
rant 1
▁narr 1
▁worn 1
▁comment 1
▁dru 1
▁hun 1
tering 1
▁applied 1
fall 1
onse 1
▁shortly 1
▁objects 1
▁companion 1
▁rode 1
▁taste 1
athered 1
▁occupied 1
▁cars 1
▁hidden 1
▁morrow 1
ga 1
iot 1
▁cheer 1
▁schem 1
▁efforts 1
▁Cons 1
▁Egypt 1
▁theatre 1
▁unusual 1
▁stuff 1
▁Ill 1
▁Los 1
▁trained 1
▁promised 1
Four 1
▁eleven 1
▁atmosphere 1
acle 1
riend 1
▁create 1
▁passes 1
▁scarcely 1
Once 1
orous 1
▁intellect 1
▁approached 1
erg 1
▁announced 1
▁department 1
rier 1
▁flower 1
▁Records 1
▁annual 1
▁Virginia 1
▁defeated 1
asp 1
▁doors 1
▁governor 1
▁professor 1
iate 1
umber 1
▁code 1
▁pron 1
Americ 1
▁constructed 1
▁total 1
▁syn 1
▁teeth 1
▁gets 1
▁noble 1
itable 1
▁wings 1
lam 1
uan 1
lend 1
▁visited 1
▁relatively 1
umes 1
acity 1
▁solid 1
▁matters 1
iated 1
anches 1
▁waited 1
bre 1
▁bitter 1
▁league 1
▁flood 1
▁Army 1
▁drag 1
▁albums 1
▁shel 1
▁target 1
rose 1
ules 1
▁fault 1
▁branch 1
▁shepherd 1
▁proof 1
▁script 1
ront 1
▁Ang 1
▁bass 1
▁conflict 1
▁perceived 1
▁wet 1
▁categ 1
▁chamber 1
▁Mem 1
estic 1
▁burst 1
▁Northern 1
▁hurry 1
▁prior 1
▁rapidly 1
▁uns 1
▁false 1
sylvania 1
Under 1
▁Ohio 1
▁rules 1
▁chosen 1
▁clearly 1
lim 1
asy 1
esty 1
▁page 1
▁aware 1
Pr 1
▁rooms 1
▁Dan 1
▁emp 1
▁contact 1
▁Art 1
▁Com 1
▁guy 1
▁calling 1
▁Fort 1
▁affect 1
▁interesting 1
enance 1
▁yesterday 1
▁opportunity 1
▁sam 1
▁wounded 1
▁approxim 1
▁incl 1
▁broadcast 1
how 1
▁wave 1
▁medic 1
▁consequ 1
▁shr 1
▁symp 1
▁vast 1
▁rising 1
▁bul 1
chief 1
▁roads 1
▁undert 1
▁consult 1
Ed 1
▁hills 1
▁nomin 1
▁flying 1
▁studio 1
▁respond 1
isp 1
itated 1
▁damage 1
▁murder 1
▁crossed 1
▁islands 1
▁inse 1
▁adult 1
▁tribes 1
▁Del 1
▁Smith 1
▁White 1
utenant 1
▁industrial 1
arly 1
fess 1
▁union 1
▁Doctor 1
▁aspect 1
▁connection 1
Fur 1
icing 1
▁hurt 1
▁compar 1
▁residents 1
▁neighborhood 1
upp 1
▁Mr 1
▁san 1
▁wore 1
▁records 1
▁wooden 1
▁wheel 1
▁perman 1
▁formerly 1
▁rat 1
iest 1
aj 1
eles 1
▁Cat 1
▁elev 1
▁Henry 1
▁Francis 1
▁uniform 1
Therefore 1
yram 1
▁claimed 1
rif 1
▁fold 1
▁fingers 1
ipl 1
▁Pet 1
ulous 1
▁gain 1
▁stir 1
▁omens 1
▁peter 1
Instead 1
▁nort 1
ivered 1
▁critics 1
▁everybody 1
▁grandfather 1
▁waves 1
▁constant 1
va 1
▁Angeles 1
ivity 1
▁Gold 1
▁pink 1
▁column 1
hus 1
min 1
onym 1
▁mal 1
▁onto 1
▁trial 1
▁possibly 1
oln 1
urd 1
acific 1
▁levels 1
▁distant 1
▁dreams 1
▁bold 1
▁liqu 1
▁bodies 1
▁volunt 1
▁pleased 1
rael 1
▁mile 1
▁murd 1
▁ceased 1
▁witness 1
ansas 1
pping 1
▁Earth 1
▁genus 1
▁feelings 1
tle 1
▁Liber 1
▁sport 1
▁detect 1
▁entrance 1
▁Mag 1
▁My 1
▁experiment 1
▁maintained 1
▁disappeared 1
▁freedom 1
▁smiling 1
▁feed 1
▁sounds 1
Sometimes 1
▁mas 1
▁chest 1
▁crown 1
▁affairs 1
▁hunting 1
lly 1
Upon 1
▁ride 1
▁recording 1
wich 1
▁Ser 1
▁Grand 1
▁kitchen 1
▁interior 1
▁Haw 1
▁justice 1
▁satisfact 1
▁Spr 1
▁ward 1
▁alarm 1
erk 1
▁Irish 1
ien 1
▁unh 1
▁folk 1
▁nose 1
▁thro 1
▁suppl 1
idently 1
▁exists 1
usc 1
Soon 1
ueen 1
▁Atl 1
play 1
gment 1
▁persu 1
▁gathered 1
▁financial 1
▁initially 1
ato 1
▁kid 1
▁meat 1
▁defend 1
▁mathem 1
▁Florida 1
▁actions 1
adel 1
olt 1
▁La 1
▁flu 1
▁knowing 1
▁dangerous 1
▁functions 1
athy 1
inite 1
▁affected 1
nam 1
▁Che 1
▁task 1
▁safety 1
ulations 1
Go 1
iffe 1
▁seek 1
▁impact 1
▁parliament 1
nic 1
lying 1
▁risk 1
▁basis 1
▁application 1
▁plate 1
▁strang 1
▁instance 1
avis 1
▁Day 1
▁coal 1
▁horiz 1
ucks 1
▁hes 1
▁fier 1
▁crime 1
▁breast 1
▁gather 1
Addition 1
▁passage 1
▁pressure 1
▁management 1
▁scientific 1
▁technology 1
▁ens 1
▁temple 1
▁Massachusetts 1
▁Rev 1
ennis 1
▁reject 1
▁imagine 1
▁woods 1
▁poetry 1
Further 1
▁security 1
▁concerned 1
artment 1
▁reform 1
▁inspired 1
ua 1
oles 1
▁Rob 1
▁critical 1
vy 1
▁Stud 1
▁units 1
▁constitu 1
▁independ 1
unes 1
osis 1
▁Mic 1
▁ocean 1
▁attrib 1
onia 1
awa 1
ouch 1
emies 1
▁busy 1
▁Kingdom 1
▁escaped 1
▁advice 1
▁glance 1
▁painted 1
Our 1
Would 1
ilton 1
▁August 1
▁Middle 1
ava 1
erves 1
▁asleep 1
▁courage 1
▁influenced 1
▁response 1
▁arts 1
▁dawn 1
▁pier 1
▁showing 1
▁analysis 1
▁frame 1
▁obtained 1
▁painting 1
rehens 1
iser 1
umph 1
▁lamp 1
▁reduced 1
▁resc 1
▁Board 1
Everyone 1
▁requires 1
uild 1
▁Sim 1
pton 1
▁colonel 1
▁gentlemen 1
▁pool 1
▁innoc 1
▁Pennsylvania 1
▁wond 1
▁utter 1
▁academ 1
▁retire 1
▁ancest 1
▁hide 1
▁aside 1
▁flour 1
▁terror 1
▁nearest 1
Your 1
▁Camp 1
▁price 1
▁allows 1
▁regret 1
▁prove 1
▁corpor 1
▁ordinary 1
Sub 1
gian 1
hetic 1
▁Mill 1
▁fate 1
▁wing 1
istical 1
▁offices 1
▁interests 1
▁municipal 1
▁Im 1
▁Ben 1
▁examples 1
▁inhabitants 1
▁phr 1
acent 1
▁tent 1
▁Award 1
unction 1
▁sisters 1
▁ourselves 1
mes 1
▁reference 1
▁servant 1
ya 1
▁yard 1
▁status 1
ervative 1
iable 1
▁wand 1
▁smell 1
▁traff 1
▁returning 1
▁explan 1
▁discover 1
▁liked 1
▁theme 1
nderson 1
▁hurried 1
▁materials 1
▁chain 1
▁equip 1
▁message 1
wed 1
▁dyn 1
urt 1
▁disturb 1
▁destiny 1
▁citizens 1
▁apparently 1
istics 1
▁Italy 1
▁spend 1
▁mounted 1
▁listened 1
Rec 1
rum 1
wide 1
▁Serv 1
▁failure 1
▁selected 1
▁sixty 1
ferences 1
gen 1
▁calcul 1
▁expressed 1
oir 1
▁Off 1
▁Brown 1
▁faced 1
▁flash 1
▁entertain 1
anda 1
inate 1
imately 1
▁voices 1
▁continu 1
▁frightened 1
lets 1
ctors 1
rical 1
▁fond 1
▁conqu 1
▁thrown 1
▁shoulders 1
▁stairs 1
▁purposes 1
▁belief 1
▁wedd 1
apping 1
▁incident 1
▁regularly 1
onn 1
razil 1
▁fled 1
▁obsc 1
▁eating 1
▁stayed 1
▁shouted 1
▁separated 1
▁guns 1
rently 1
▁projects 1
▁consisted 1
itors 1
▁collabor 1
urse 1
▁camer 1
▁servants 1
▁Ox 1
▁Hel 1
▁calls 1
▁conclud 1
▁degrees 1
appy 1
▁Kent 1
▁piano 1
▁gently 1
▁Southern 1
▁tub 1
▁Cong 1
▁debut 1
▁sugar 1
▁affection 1
▁dedicated 1
oped 1
▁coffee 1
▁temperature 1
▁simpl 1
▁audience 1
▁pill 1
incoln 1
▁talked 1
outheast 1
▁villages 1
▁impr 1
▁branches 1
▁desk 1
▁outd 1
▁teaching 1
▁distinguished 1
▁goods 1
▁tongue 1
▁scholars 1
▁swimming 1
Maybe 1
inois 1
oviet 1
▁tight 1
▁maj 1
▁Scotland 1
▁yield 1
▁regions 1
▁Arch 1
▁teles 1
▁cultiv 1
▁views 1
▁climate 1
▁moments 1
▁thousands 1
ulate 1
▁propos 1
▁obliged 1
▁historic 1
ij 1
▁pursu 1
▁laun 1
▁armed 1
▁finds 1
▁unable 1
▁enemies 1
▁soldier 1
ta 1
▁frag 1
▁smooth 1
Any 1
Mean 1
▁era 1
▁vain 1
bar 1
▁Sir 1
▁surely 1
inter 1
omer 1
▁aid 1
ealand 1
▁overl 1
▁capable 1
Im 1
▁Tim 1
andom 1
▁dick 1
▁phone 1
▁claims 1
▁enthus 1
▁splend 1
▁traffic 1
▁understanding 1
En 1
▁strike 1
umm 1
aver 1
▁Jersey 1
▁settle 1
▁chemical 1
aws 1
▁Martin 1
▁lyrics 1
▁Carolina 1
Ag 1
rill 1
▁hosts 1
vis 1
▁mob 1
▁homes 1
▁symbol 1
ucle 1
▁Inde 1
▁myst 1
▁saved 1
▁preced 1
▁Sl 1
▁Mad 1
▁cycl 1
▁craft 1
▁lifted 1
▁reality 1
▁actual 1
▁provinc 1
▁seasons 1
▁thorough 1
sp 1
▁falls 1
standing 1
ildren 1
▁producer 1
▁recovered 1
Car 1
vin 1
hess 1
ounce 1
erable 1
▁relief 1
▁captured 1
Ro 1
ban 1
▁mart 1
▁ghost 1
▁online 1
▁agricultural 1
▁Libr 1
▁mistake 1
▁solution 1
▁reputation 1
iger 1
ulpt 1
umped 1
▁sake 1
▁chose 1
▁strip 1
▁resour 1
▁meteor 1
▁equipment 1
ras 1
iner 1
▁shoes 1
▁Public 1
▁supply 1
▁camel 1
▁scale 1
▁rivers 1
▁Carl 1
▁exped 1
▁phen 1
▁concl 1
▁permitted 1
onto 1
▁dish 1
▁soil 1
▁cattle 1
▁naturally 1
▁keeping 1
▁territory 1
▁murm 1
▁pride 1
▁rang 1
▁strongly 1
osc 1
▁hal 1
▁lect 1
▁prem 1
▁drift 1
▁trick 1
incorporated 1
Gu 1
arge 1
▁sin 1
▁Second 1
▁madame 1
▁Institute 1
▁dare 1
▁prompt 1
izations 1
▁ahead 1
▁sites 1
▁waste 1
bec 1
▁Den 1
▁rac 1
ockey 1
▁cliff 1
▁pounds 1
cel 1
▁lat 1
▁Prov 1
▁covers 1
▁duties 1
▁finger 1
▁patient 1
▁extensive 1
▁suffering 1
iques 1
▁mode 1
▁choose 1
▁bay 1
▁acts 1
ointment 1
▁sufficient 1
▁accompanied 1
▁cos 1
▁contrast 1
▁fer 1
▁lod 1
▁Ag 1
▁Sur 1
stein 1
▁flew 1
▁rarely 1
▁emperor 1
▁facility 1
ih 1
urches 1
Fl 1
▁Lord 1
▁drove 1
ownt 1
phone 1
▁strict 1
American 1
▁hearing 1
isms 1
▁obv 1
▁sets 1
▁cruel 1
▁festival 1
ucky 1
▁aim 1
▁orange 1
▁treated 1
▁gradually 1
iece 1
▁Group 1
▁sculpt 1
Meanwhile 1
▁intention 1
oys 1
▁myster 1
▁priest 1
▁seized 1
▁administration 1
▁Sund 1
▁evident 1
▁immense 1
▁universal 1
ran 1
ogue 1
▁unincorporated 1
phy 1
▁Cross 1
▁refers 1
▁African 1
▁increasing 1
lle 1
inem 1
▁tra 1
mother 1
▁minim 1
▁suffer 1
▁opposition 1
▁unp 1
▁united 1
▁descent 1
▁administrative 1
▁cells 1
▁Mexico 1
▁fairly 1
▁seated 1
▁arranged 1
Us 1
▁glob 1
▁granted 1
▁sleeping 1
izz 1
▁lege 1
▁nurse 1
▁protection 1
rete 1
atherine 1
▁starting 1
▁fox 1
▁compr 1
▁leads 1
▁handsome 1
▁hundreds 1
▁assistant 1
awn 1
seless 1
▁crack 1
▁fancy 1
▁lawyer 1
▁theore 1
▁altogether 1
usse 1
raham 1
▁split 1
rain 1
▁telling 1
▁luc 1
▁anxious 1
▁regional 1
▁executive 1
▁subsequent 1
▁Bell 1
▁entering 1
yard 1
▁pup 1
chest 1
ropri 1
▁Columbia 1
▁Pri 1
▁Library 1
▁graduated 1
know 1
▁Vill 1
▁Station 1
▁du 1
▁bent 1
ensity 1
▁workers 1
akers 1
icken 1
urban 1
▁Bill 1
▁Wind 1
▁Trans 1
Without 1
▁philosophy 1
cca 1
olas 1
otic 1
onents 1
▁diamond 1
▁equival 1
▁Fin 1
istan 1
itage 1
▁Star 1
▁fart 1
engers 1
nce 1
▁Ke 1
anny 1
▁dur 1
▁sole 1
▁intelligence 1
inth 1
▁sed 1
istry 1
▁remind 1
▁improved 1
▁dot 1
▁odd 1
▁amaz 1
▁flow 1
bra 1
gor 1
ilty 1
▁bat 1
▁Foot 1
▁dull 1
▁trip 1
▁Super 1
▁Soviet 1
▁instru 1
▁lovely 1
▁acquired 1
riff 1
▁turns 1
▁american 1
▁satisfied 1
Miss 1
▁pion 1
▁Brook 1
▁images 1
▁titles 1
▁planned 1
▁Boston 1
▁initial 1
▁sixteen 1
▁achieved 1
▁cheese 1
▁literary 1
▁stores 1
▁rhy 1
▁subjects 1
▁possession 1
mony 1
▁moral 1
▁reign 1
William 1
▁curious 1
▁absor 1
▁signs 1
▁Forest 1
▁Joseph 1
▁proport 1
▁admitted 1
▁earnest 1
▁architecture 1
uns 1
esus 1
ture 1
▁poll 1
▁alleg 1
▁advance 1
▁Bob 1
▁depth 1
▁swift 1
▁dismiss 1
▁Rad 1
▁horn 1
atically 1
▁anybody 1
▁laughing 1
▁Department 1
▁serving 1
▁Sat 1
▁exha 1
▁yours 1
▁evidently 1
▁fet 1
▁acid 1
▁grat 1
▁loose 1
lyn 1
ura 1
▁Er 1
▁prefer 1
▁prisoner 1
▁attempted 1
rior 1
▁basic 1
▁hoped 1
▁federal 1
▁putting 1
Book 1
▁honest 1
▁owners 1
▁stable 1
▁achieve 1
▁tells 1
▁colors 1
▁tow 1
▁issued 1
▁frequent 1
▁conducted 1
▁agriculture 1
pent 1
▁gay 1
▁nerv 1
oration 1
▁Junior 1
▁Illinois 1
▁discovery 1
irk 1
onna 1
▁jul 1
aired 1
▁astron 1
▁sorrow 1
ibly 1
▁fix 1
▁inher 1
▁stamp 1
owntown 1
▁athlet 1
▁ability 1
▁adjacent 1
▁sentence 1
uman 1
▁sess 1
▁roles 1
▁baseball 1
▁secondary 1
▁Parliament 1
anna 1
▁focus 1
▁march 1
▁Brazil 1
umin 1
▁map 1
▁Will 1
▁advoc 1
▁brave 1
▁childhood 1
▁Line 1
▁begun 1
▁devil 1
▁outer 1
Much 1
▁Kore 1
▁Oxford 1
▁complic 1
▁tomorrow 1
▁revolution 1
▁contributed 1
▁manufacture 1
ilm 1
uate 1
▁gods 1
▁nest 1
▁clock 1
▁interrupted 1
Born 1
▁Tom 1
▁landsc 1
▁translation 1
aska 1
Event 1
▁hate 1
▁mood 1
▁sang 1
▁rural 1
▁amongst 1
▁enjoyed 1
▁welcome 1
▁arrested 1
agg 1
han 1
▁Dire 1
▁request 1
▁Corn 1
lessly 1
▁opposed 1
▁Conn 1
▁banks 1
▁Britain 1
▁defined 1
▁struggle 1
▁Sand 1
▁clouds 1
eenth 1
yramids 1
▁actress 1
▁partner 1
▁restrict 1
▁whispered 1
▁pin 1
▁moder 1
▁Albert 1
bell 1
raph 1
▁pow 1
▁web 1
▁bore 1
▁seats 1
▁Stat 1
▁sust 1
▁occasions 1
▁technical 1
First 1
onsie 1
▁crop 1
borough 1
▁friendly 1
▁implement 1
Bes 1
▁buck 1
▁meal 1
▁faster 1
▁dancing 1
▁ec 1
Good 1
▁Charl 1
▁magic 1
▁glasses 1
abel 1
iral 1
▁cott 1
▁Champ 1
▁Victoria 1
▁identified 1
▁convinc 1
▁hanging 1
▁attached 1
▁churches 1
▁visitors 1
onc 1
▁ton 1
▁engin 1
roc 1
▁row 1
▁myth 1
▁thor 1
▁fleet 1
▁sales 1
▁superior 1
▁practical 1
▁translated 1
ns 1
▁pard 1
▁worst 1
▁affair 1
rep 1
ocal 1
▁bands 1
▁profession 1
▁Kn 1
▁steam 1
▁german 1
▁individuals 1
burn 1
▁Land 1
▁winds 1
▁shared 1
▁arrival 1
▁ceremony 1
▁alongside 1
Out 1
▁dign 1
▁straw 1
▁wedding 1
▁basketball 1
▁Div 1
aylor 1
eping 1
▁pity 1
▁vote 1
▁Centre 1
▁Israel 1
▁Pacific 1
▁Cap 1
▁Wal 1
▁awards 1
▁driving 1
Eventually 1
iders 1
▁Toronto 1
▁grounds 1
▁Williams 1
▁preserved 1
▁specifically 1
Gl 1
▁pig 1
▁vic 1
▁cord 1
▁ende 1
ieties 1
inking 1
▁contemporary 1
▁bath 1
▁obst 1
▁Georgia 1
order 1
works 1
▁thanks 1
▁vision 1
ador 1
▁Gre 1
▁Jim 1
▁holy 1
▁credited 1
▁Dr 1
apel 1
dale 1
mouth 1
▁scattered 1
inson 1
▁unex 1
ifying 1
▁guilty 1
▁weapons 1
▁organized 1
Rate 1
irmed 1
▁cards 1
▁knees 1
▁Jackson 1
ao 1
oons 1
▁sty 1
App 1
roll 1
rome 1
acles 1
bourne 1
▁flame 1
▁locked 1
▁engines 1
uable 1
▁brill 1
▁hence 1
▁finish 1
▁jacket 1
▁substant 1
▁guests 1
▁difficulties 1
oting 1
ourse 1
▁formal 1
▁borders 1
▁decades 1
▁semi 1
▁reflect 1
▁Str 1
▁Gard 1
▁jane 1
▁acknow 1
▁hollow 1
▁cultural 1
▁Commission 1
ois 1
ighed 1
ommon 1
▁overt 1
▁combat 1
▁staring 1
inton 1
▁Navy 1
▁pipe 1
▁cloth 1
▁constitution 1
elly 1
ober 1
onsc 1
Chapter 1
▁northwest 1
Fin 1
olis 1
vard 1
liest 1
▁dece 1
▁poem 1
▁Music 1
▁acted 1
▁classical 1
Near 1
usive 1
uther 1
▁duke 1
▁consum 1
phia 1
▁wis 1
iture 1
▁cert 1
unning 1
▁flesh 1
▁henry 1
▁joint 1
▁knife 1
▁hearts 1
▁prepar 1
▁describe 1
▁authorities 1
aus 1
▁Sil 1
▁combined 1
igr 1
atics 1
▁copy 1
▁solo 1
Mister 1
ptember 1
▁Castle 1
▁senior 1
▁Mer 1
▁burned 1
▁matches 1
▁retained 1
▁departure 1
Sm 1
wan 1
aters 1
otton 1
▁cave 1
▁rear 1
▁wire 1
▁depos 1
▁remarked 1
▁experienced 1
vant 1
▁sits 1
▁george 1
▁Governor 1
▁unsu 1
teenth 1
▁frank 1
▁biggest 1
▁listening 1
oked 1
▁Sar 1
▁desper 1
▁nearer 1
▁supper 1
▁charged 1
▁triumph 1
▁Michigan 1
▁attempts 1
▁interred 1
▁Des 1
▁ere 1
▁por 1
▁alcoh 1
▁refer 1
ropical 1
▁forests 1
▁Football 1
▁internal 1
▁committee 1
▁disappointed 1
▁dozen 1
▁transm 1
▁operate 1
▁Ann 1
asion 1
icide 1
▁Rome 1
▁bicy 1
▁agent 1
▁items 1
▁novels 1
▁plenty 1
▁violence 1
Bet 1
opes 1
Nor 1
▁landing 1
▁attacked 1
▁vehicles 1
▁attracted 1
put 1
ndered 1
▁graph 1
▁crossing 1
force 1
▁pushed 1
▁immediate 1
acon 1
real 1
icity 1
pelled 1
▁equally 1
▁fol 1
▁rag 1
▁relie 1
adelphia 1
▁irrit 1
▁handle 1
▁careful 1
▁Scottish 1
▁dreadful 1
▁resolved 1
fortunately 1
▁confidence 1
anz 1
▁pine 1
▁costs 1
▁shooting 1
▁permanent 1
▁How 1
rayed 1
▁spark 1
▁sacrif 1
▁expanded 1
with 1
▁rent 1
▁shell 1
▁credit 1
▁farther 1
▁paralle 1
▁centuries 1
amin 1
▁channel 1
▁applications 1
crib 1
ipping 1
long 1
▁Mur 1
▁france 1
▁instantly 1
▁brid 1
▁publ 1
ustomed 1
▁paused 1
▁despite 1
▁fiction 1
▁impress 1
greg 1
▁fuel 1
▁horror 1
iro 1
▁Jan 1
▁curt 1
inging 1
▁extraord 1
Sch 1
arry 1
ications 1
▁desired 1
▁spirits 1
▁Committee 1
bit 1
▁Ge 1
▁Cle 1
▁assert 1
▁commander 1
▁converted 1
▁oasis 1
ilst 1
▁rust 1
▁challen 1
Cont 1
▁sup 1
▁giant 1
▁nucle 1
▁briefly 1
▁intense 1
▁northeast 1
▁Metropolitan 1
▁cig 1
▁ped 1
▁vocal 1
▁designs 1
▁william 1
▁mistress 1
▁represents 1
orph 1
▁Dev 1
▁golf 1
▁despair 1
▁highway 1
▁medicine 1
▁reservation 1
fle 1
iary 1
▁vig 1
▁guide 1
▁lands 1
▁user 1
iences 1
▁driven 1
▁founder 1
▁clothing 1
▁creation 1
▁passenger 1
▁techniques 1
Co 1
Come 1
irty 1
onel 1
▁ate 1
tical 1
action 1
▁dying 1
▁sixth 1
▁denied 1
▁worship 1
▁compared 1
▁committed 1
ova 1
▁decre 1
▁afford 1
▁absolutely 1
▁rejo 1
▁burning 1
▁climbed 1
▁apartment 1
▁formation 1
Additionally 1
enses 1
erior 1
leton 1
▁sounded 1
▁explanation 1
face 1
▁arose 1
▁manif 1
▁appeal 1
▁endeav 1
▁partners 1
▁reaction 1
acc 1
elia 1
▁apply 1
▁slaves 1
entially 1
▁newspapers 1
▁string 1
▁academic 1
▁contrary 1
▁performing 1
▁appearances 1
Saint 1
▁drunk 1
▁skill 1
▁feather 1
▁retreat 1
▁Memorial 1
life 1
▁Dutch 1
▁cream 1
▁resulted 1
▁composition 1
▁Hol 1
▁Asia 1
▁tiny 1
▁excit 1
▁absence 1
▁Internet 1
Part 1
Besides 1
Similar 1
▁liquid 1
▁partly 1
▁racing 1
▁revealed 1
eck 1
▁Mars 1
▁subd 1
▁slave 1
▁Jo 1
Short 1
arris 1
▁chap 1
▁facts 1
▁resumed 1
▁Cambridge 1
▁everywhere 1
chers 1
▁regist 1
▁bedroom 1
▁domestic 1
leg 1
urg 1
▁reck 1
▁Wales 1
▁shame 1
▁distribution 1
aka 1
▁Luc 1
assed 1
▁deck 1
onsieur 1
▁scheme 1
▁assumed 1
▁effective 1
▁operating 1
via 1
▁Emp 1
▁demanded 1
▁sund 1
▁Edward 1
Fr 1
▁Sea 1
▁grant 1
▁Eastern 1
▁exercise 1
▁restored 1
▁photograph 1
▁Independent 1
ouri 1
▁income 1
avig 1
oust 1
urday 1
▁scenes 1
▁distributed 1
ella 1
rive 1
▁fan 1
aping 1
▁Soul 1
▁ideal 1
▁stead 1
▁portra 1
▁nations 1
▁adventure 1
▁equivalent 1
▁properties 1
enic 1
ansion 1
▁ignor 1
▁friendship 1
avan 1
▁jim 1
▁Fred 1
▁maxim 1
▁happens 1
▁vehicle 1
▁movements 1
iac 1
uty 1
▁plot 1
▁explos 1
▁reports 1
▁behavior 1
orse 1
▁Post 1
▁volume 1
▁average 1
▁Congress 1
▁necessity 1
▁accur 1
▁willing 1
Currently 1
▁somebody 1
▁statement 1
▁Way 1
▁kings 1
▁mental 1
▁remarkable 1
ais 1
Stud 1
▁Squ 1
▁divor 1
rail 1
▁Mid 1
▁Budd 1
▁pitch 1
▁maintain 1
▁sections 1
udge 1
▁rein 1
▁Spain 1
▁Russia 1
ographer 1
▁imprison 1
orporation 1
▁approximately 1
mann 1
aptain 1
stairs 1
▁fence 1
Nothing 1
▁apprec 1
▁Tri 1
itled 1
▁hath 1
orious 1
▁Avenue 1
▁format 1
▁nervous 1
▁declined 1
▁possessed 1
▁uncertain 1
rick 1
▁papa 1
▁micro 1
▁facult 1
▁injury 1
▁episodes 1
▁synt 1
▁recre 1
western 1
▁bishop 1
▁liberty 1
agle 1
ctober 1
▁brick 1
ologist 1
inations 1
▁shopping 1
▁displayed 1
▁association 1
▁Es 1
▁torn 1
▁yards 1
▁Berlin 1
▁borough 1
▁predomin 1
athan 1
▁fans 1
▁cabin 1
▁tools 1
▁lasted 1
▁purple 1
▁assigned 1
▁telescope 1
▁constantly 1
col 1
lemn 1
▁tank 1
▁Portug 1
▁realized 1
wart 1
▁Cup 1
unnel 1
▁sale 1
▁tort 1
▁inner 1
▁bottle 1
▁observe 1
ext 1
law 1
▁Os 1
class 1
icate 1
▁leaf 1
▁deeply 1
▁throat 1
▁wishes 1
▁factory 1
▁potential 1
tic 1
down 1
▁attacks 1
▁protest 1
▁household 1
▁residence 1
bey 1
atima 1
▁manage 1
▁eighty 1
▁devoted 1
▁stadium 1
▁programming 1
▁tied 1
▁Chief 1
▁cancer 1
▁fierce 1
▁solemn 1
▁collected 1
▁platforms 1
Tell 1
ewis 1
▁gift 1
acious 1
▁paris 1
▁starred 1
▁tournament 1
ba 1
▁Dar 1
▁elim 1
▁gran 1
▁mild 1
▁cheap 1
▁enorm 1
▁slept 1
ensions 1
▁camera 1
▁pretend 1
▁succeed 1
▁nurs 1
▁Secret 1
▁consol 1
▁creatures 1
▁performances 1
ogy 1
omed 1
▁Sing 1
▁rushed 1
▁monaster 1
oil 1
agan 1
asty 1
uled 1
▁Dou 1
ester 1
▁rabb 1
▁chart 1
▁extent 1
▁Mountain 1
▁capacity 1
Bel 1
Very 1
eless 1
▁Jean 1
▁Jones 1
▁conven 1
▁structures 1
▁forb 1
Origin 1
pecial 1
▁clubs 1
▁farmer 1
▁instinct 1
ums 1
abet 1
▁nep 1
▁diet 1
▁generation 1
osa 1
▁et 1
▁Lee 1
▁dar 1
▁mole 1
▁rival 1
▁resides 1
▁stepped 1
▁argument 1
▁essential 1
▁satisfaction 1
▁Sun 1
atural 1
▁fired 1
▁knock 1
ographic 1
▁dialect 1
▁destination 1
▁Act 1
uting 1
▁kids 1
▁locations 1
▁thereafter 1
▁residential 1
uz 1
ands 1
▁McC 1
▁keen 1
▁Beach 1
▁proceeded 1
▁recommend 1
▁excitement 1
▁championship 1
iosity 1
▁worry 1
▁accustomed 1
▁engineering 1
▁12 1
utor 1
▁Just 1
▁flav 1
▁distin 1
▁legend 1
▁random 1
▁splendid 1
▁searching 1
rev 1
rich 1
rove 1
▁remote 1
▁secure 1
▁involve 1
▁technique 1
▁principles 1
vest 1
abled 1
▁intr 1
▁condem 1
▁throne 1
iat 1
▁Hills 1
▁bench 1
▁poison 1
▁governed 1
▁southwest 1
Take 1
icit 1
▁cod 1
venge 1
▁rene 1
▁theater 1
erd 1
acob 1
▁Minn 1
▁tomb 1
▁emerg 1
▁steep 1
▁thinks 1
▁edition 1
Char 1
▁fare 1
Little 1
▁Civil 1
▁Railway 1
▁farming 1
ila 1
oop 1
una 1
istol 1
▁rope 1
▁spin 1
Unlike 1
▁belonged 1
ldom 1
▁hadn 1
▁reward 1
enna 1
grad 1
▁seventy 1
▁expensive 1
▁consequence 1
▁accomplished 1
cho 1
▁Bas 1
olate 1
▁york 1
▁Holly 1
▁anger 1
▁mining 1
▁christian 1
ante 1
▁Ray 1
▁Matt 1
▁cock 1
▁truly 1
▁Prince 1
▁tennis 1
▁illness 1
▁boundary 1
▁exchange 1
▁No 1
Pres 1
ints 1
▁haw 1
▁diff 1
▁hook 1
fessor 1
▁shops 1
hesis 1
▁Wars 1
illing 1
▁limit 1
▁polic 1
▁hungry 1
▁institutions 1
El 1
outs 1
agger 1
▁adap 1
▁roll 1
Doctor 1
Histor 1
▁prize 1
▁Bridge 1
▁contest 1
▁graduate 1
▁valuable 1
Col 1
held 1
▁Hon 1
▁rim 1
▁Book 1
▁monk 1
▁lover 1
▁injured 1
▁vessels 1
▁seriously 1
lar 1
ippi 1
▁ris 1
▁asking 1
▁nephew 1
bow 1
▁ain 1
▁boats 1
▁prayer 1
▁render 1
▁changing 1
▁patience 1
▁bree 1
▁dipl 1
▁Broad 1
▁batter 1
▁rating 1
▁Pyramids 1
▁reception 1
▁seventeen 1
egal 1
▁avo 1
isible 1
▁Princ 1
▁violent 1
▁prisoners 1
pool 1
▁Wel 1
▁summ 1
▁plane 1
▁worthy 1
▁typical 1
▁definition 1
▁discussion 1
▁ 1
e 1
t 1
a 1
o 1
i 1
n 1
s 1
r 1
h 1
l 1
d 1
c 1
u 1
m 1
f 1
w 1
g 1
y 1
p 1
b 1
. 1
v 1
k 1
, 1
T 1
A 1
I 1
' 1
S 1
H 1
" 1
C 1
x 1
M 1
B 1
W 1
P 1
- 1
j 1
q 1
D 1
L 1
z 1
R 1
F 1
G 1
E 1
N 1
O 1
J 1
? 1
K 1
Y 1
U 1
V 1
! 1
1 1
2 1
: 1
